[PAD]
[UNK]
[CLS]
[SEP]
[MASK]
!
"
#
$
%
&
'
(
)
*
+
,
-
.
/
0
1
2
3
4
5
6
7
8
9
:
;
<
=
>
?
@
A
B
C
D
E
F
G
H
I
J
K
L
M
N
O
P
Q
R
S
T
U
V
W
X
Y
Z
[
\
]
^
_
`
a
b
c
d
e
f
g
h
i
j
k
l
m
n
o
p
q
r
s
t
u
v
w
x
y
z
{
|
}
~
¡
¢
£
¤
¥
¦
§
©
«
¬
®
°
±
¶
·
»
¿
Â
Ã
Å
Ç
É
Ê
Ï
Ð
Ñ
Ö
×
Ø
Ù
Ü
Þ
ß
à
á
â
ã
ä
å
æ
ç
è
é
ê
ë
í
î
ï
ñ
ò
ó
ô
õ
ö
÷
ø
ù
ú
û
ü
ā
ă
Ą
ą
ć
ĉ
Č
č
ď
Đ
đ
ę
ğ
Ģ
ī
į
İ
ı
ĸ
Ļ
Ľ
Ł
ł
ŋ
ō
ő
Œ
œ
Ŗ
Ś
ś
ŝ
Ş
ş
Š
š
ţ
Ť
Ŧ
ū
ŷ
ž
ƒ
ư
Ʒ
Ƹ
ƽ
ǁ
ǿ
ȫ
ə
ɪ
ɱ
ʁ
ʃ
ʋ
ʘ
ʽ
ʾ
ʿ
ˆ
ˉ
ˮ
́
̃
̄
̅
̇
̈
̊
̡
̧
̨
̲
̳
̴
̵
̶
̷
̸
͡
ͼ
Θ
Μ
Ξ
Σ
Ψ
Ω
ά
έ
ή
ί
α
β
γ
ε
ζ
η
θ
ι
κ
λ
μ
ν
ξ
ο
π
ρ
ς
σ
τ
υ
φ
ψ
ω
ό
ώ
Ϡ
Є
А
Б
В
Г
Д
И
Й
К
М
Н
О
П
Р
С
Т
Ф
Я
а
б
в
г
д
е
ж
з
и
й
к
л
м
н
о
п
р
с
т
у
ф
х
ц
ч
ш
ъ
ы
ь
я
ё
є
ѕ
і
ї
ѽ
҈
҉
Ғ
Җ
Ҳ
ҳ
һ
ա
խ
մ
վ
֝
ִ
ַ
ָ
ּ
־
ֿ
א
ב
ג
ד
ה
ו
ז
ח
ט
י
ך
כ
ל
ם
מ
ן
נ
ס
ע
ף
פ
ץ
צ
ק
ר
ש
ת
װ
״
׼
،
؛
؟
ء
آ
أ
ؤ
إ
ئ
ا
ب
ة
ت
ث
ج
ح
خ
د
ذ
ر
ز
س
ش
ص
ض
ط
ظ
ع
غ
ػ
ف
ق
ك
ل
م
ن
ه
و
ى
ي
ٓ
ٔ
٠
١
٢
٣
٤
٥
٦
٧
٨
٩
٪
٫
٬
٭
ٱ
ٲ
ٳ
ٴ
ٹ
ٺ
ٻ
ټ
پ
ٿ
چ
ڈ
ڊ
ڑ
ړ
ڔ
ڕ
ږ
ژ
ڙ
ڛ
ڠ
ڤ
ڦ
ڨ
ک
ڪ
ڬ
ڭ
گ
ڲ
ڳ
ڵ
ڶ
ڷ
ڸ
ڹ
ں
ڼ
ڽ
ھ
ۀ
ہ
ۂ
ۃ
ۅ
ۆ
ۇ
ۈ
ۉ
ۋ
ی
ێ
ې
ۑ
ے
ۓ
۔
ە
ۖ
ۗ
ۚ
ۜ
۞
ۡ
ۣ
ۤ
ۧ
ۨ
۩
۪
۫
۰
۱
۲
۳
۴
۵
۶
۷
۸
۹
۾
ܐ
ܓ
ܔ
ܕ
ܘ
ܝ
ܠ
ܡ
ܢ
ܨ
ܪ
ܬ
ށ
ँ
ऊ
ऋ
ख
द
न
र
़
ा
ी
ॐ
ঔ
া
ৣ
৲
৴
৵
ਿ
ੀ
ઇ
હ
ஃ
இ
ஊ
ஐ
ஓ
ஜ
ண
ஷ
ஹ
ಏ
ಞ
ೋ
್
്
ก
ง
ฒ
ด
ท
น
บ
ม
ย
ร
ล
ว
ส
ห
อ
ะ
ั
า
ิ
ี
฿
เ
แ
ไ
็
่
้
๏
๐
๑
๘
༄
ཡ
დ
ო
რ
ღ
წ
ჲ
჻
ᅠ
ᴍ
ᴥ
ḋ
Ḥ
ḥ
Ḿ
ṭ
ả
ị
‐
–
—
‘
’
‚
“
”
„
†
‡
•
‰
′
‹
›
※
‿
⁄
₡
₩
₪
₫
€
₹
⃣
←
↑
→
↓
↔
↕
↡
↵
⇐
∂
∑
−
∙
√
∞
∥
∫
≈
≡
≽
⊰
⊱
⋘
⋙
⋰
⋱
⌐
─
━
│
┈
┣
┨
┫
═
║
╔
╗
╚
╝
╠
╣
╬
╭
╯
▂
▃
▅
▆
▇
█
▌
▏
▐
░
▒
▓
■
□
▣
▧
▪
▫
▬
▲
▶
▷
▸
►
▼
▽
◀
◁
◂
◄
◆
◇
◊
○
●
◐
◑
◕
◘
◙
◢
◣
◤
◥
◦
◾
☀
☂
☃
★
☆
☎
☏
☕
☜
☝
☞
☰
☹
☺
☻
☼
♀
♂
♔
♕
♛
♞
♠
♡
♢
♣
♥
♦
♨
♩
♪
♫
♬
♭
⚐
⚑
⚛
⚜
⚠
⚡
⚫
⚽
✅
✈
✉
✋
✌
✍
✎
✒
✓
✔
✖
✣
✦
✨
✪
✲
✽
✿
❀
❄
❊
❌
❖
❝
❞
❣
❤
❥
❦
❧
➖
➞
➽
⟰
⠀
⦁
⬇
⭐
⭕
ⴰ
ⴳ
ⴷ
ⴼ
ⵉ
ⵍ
ⵎ
ⵏ
ⵓ
ⵔ
ⵖ
ⵙ
ⵜ
ⵡ
ⵣ
、
。
《
》
『
』
【
】
〖
〗
あ
の
゚
ア
イ
ウ
グ
ジ
ッ
ツ
ト
ド
ビ
フ
ブ
ベ
ミ
ム
メ
モ
ョ
ラ
ロ
ン
・
ー
ㄨ
中
乀
乂
二
優
国
备
彡
文
日
本
語
设
국
스
어
한
﴾
﴿
️
￼
🇦
🇧
🇩
🇪
🇬
🇮
🇰
🇲
🇴
🇶
🇷
🇸
🇹
🇼
🌚
🌞
🌟
🌷
🌸
🌹
🌺
🌻
🌼
🌿
🍃
🎁
🎈
🎉
🎶
🏃
🏻
🏼
🏽
👀
👆
👇
👈
👉
👊
👌
👍
👏
👑
💃
💋
💐
💓
💔
💕
💖
💗
💘
💙
💚
💛
💜
💞
💥
💪
💫
💭
💯
📌
📍
🔥
🔴
🔵
🔹
🔻
🕊
🕔
🖤
😀
😁
😂
😃
😄
😅
😆
😇
😉
😊
😋
😌
😍
😎
😏
😐
😑
😒
😔
😕
😘
😜
😡
😢
😩
😪
😭
😱
😳
😴
😹
😻
🙁
🙂
🙃
🙄
🙈
🙊
🙌
🙏
🚶
🤔
🤗
🤣
🤦
🤷
🧡
##ت
##ن
##ا
##ز
##ع
##ل
##ق
##و
##ي
##ك
##م
##د
##ر
##8
##S
##q
##M
##F
##e
##c
##g
##y
##ض
##ه
##1
##5
##ص
##ح
##س
##ش
##ذ
##خ
##ف
##ؤ
##ث
##ط
##ج
##ئ
##ة
##غ
##ب
##أ
##d
##t
##a
##i
##o
##n
##ء
##آ
##ٲ
##ھ
##ظ
##7
##2
##b
##L
##I
##A
##H
##K
##k
##٠
##x
##4
##Y
##0
##E
##v
##G
##Z
##3
##9
##پ
##6
##إ
##ک
##N
##u
##C
##P
##f
##p
##U
##J
##w
##r
##s
##€
##h
##j
##l
##ñ
##O
##R
##D
##ے
##ى
##m
##е
##з
##м
##😂
##ִ
##ז
##ּ
##י
##ר
##ָ
##ה
##T
##X
##B
##z
##🏼
##ی
##🚶
##🏻
##ê
##ٹ
##Q
##£
##■
##V
##W
##😇
##🤔
##ڷ
##ü
##ˆ
##μ
##ڑ
##ڈ
##١
##٦
##😉
##❤
##️
##گ
##🎁
##🎈
##🎉
##🤗
##😘
##ۈ
##ە
##×
##ں
##🤦
##🏽
##♂
##٧
##٨
##٥
##💔
##ä
##ہ
##چ
##ʁ
##̃
##ρ
##γ
##υ
##ό
##κ
##α
##σ
##τ
##ο
##р
##ё
##н
##ы
##ڳ
##ٱ
##ͼ
##̳
##٢
##é
##✋
##😭
##😩
##т
##а
##ۃ
##â
##😹
##٤
##♀
##Ù
##Š
##Ø
##😊
##👏
##и
##٩
##с
##п
##у
##́
##б
##л
##к
##🔥
##👌
##♥
##è
##®
##ٔ
##ã
##😎
##🌹
##🍃
##ػ
##в
##о
##й
##д
##ۡ
##۰
##ڤ
##є
##💚
##ٓ
##ۆ
##ڨ
##✌
##🇸
##🇦
##¬
##ו
##ע
##ץ
##▓
##█
##ς
##٣
##💘
##Ã
##©
##ч
##ٺ
##Ф
##💖
##Œ
##¥
##💗
##●
##☼
##○
##ټ
##ó
##ڵ
##ۅ
##🙂
##🏃
##ç
##х
##🙃
##🙄
##ン
##ラ
##イ
##ж
##я
##¤
##۪
##۫
##✈
##😀
##💛
##💭
##û
##°
##ۋ
##ù
##😢
##ć
##ı
##í
##ν
##į
##👍
##🙌
##ô
##✔
##😒
##ל
##ⵎ
##ⴰ
##ⵜ
##۱
##💕
##☕
##✨
##İ
##😆
##ี
##่
##🙏
##Ƹ
##נ
##ט
##ק
##۶
##۸
##👀
##⚠
##ι
##💙
##±
##۹
##ö
##۳
##۴
##۷
##š
##★
##ד
##ם
##😌
##∞
##ڛ
##ێ
##🌚
##ژ
##🇰
##🇼
##🇴
##🇲
##ٴ
##ā
##│
##π
##г
##⚫
##ร
##ั
##ง
##ก
##ว
##า
##อ
##ห
##บ
##💋
##🌷
##É
##😋
##۵
##א
##ٻ
##ۧ
##ڙ
##ې
##ڸ
##😃
##😁
##¦
##√
##Ś
##ь
##ח
##😕
##ō
##😍
##ڬ
##ڠ
##😏
##⁄
##ס
##פ
##ڪ
##ַ
##☺
##ę
##ी
##😑
##რ
##ڕ
##น
##ด
##̴
##̵
##❌
##║
##❀
##۲
##ा
##æ
##ת
##ğ
##ש
##✍
##ī
##β
##ʽ
##ڽ
##￼
##ן
##η
##ε
##ღ
##ø
##🇧
##đ
##ٿ
##ド
##フ
##ト
##ə
##ɪ
##ц
##🌸
##ú
##◦
##à
##₪
##λ
##έ
##╭
##━
##🙈
##ṭ
##ƒ
##🌺
##œ
##◄
##á
##î
##ï
##ڼ
##ۓ
##ա
##צ
##כ
##💓
##💜
##С
##ܐ
##ܠ
##🇶
##ۂ
##☆
##ʿ
##╔
##Â
##ž
##♫
##♪
##ë
##😳
##🤣
##ъ
##❝
##😐
##🙊
##👊
##ş
##💐
##Ş
##ۉ
##ஐ
##र
##ˮ
##😪
##۩
##ʾ
##↓
##ー
##ム
##ۚ
##ܘ
##ܪ
##ܝ
##ܢ
##Г
##♡
##💃
##🇹
##া
##😅
##어
##👇
##😔
##🇪
##å
##⃣
##ш
##🌿
##מ
##ג
##🌼
##👈
##💞
##😡
##ܬ
##Д
##❊
##←
##😄
##і
##ѕ
##இ
##̈
##🖤
##💪
##ά
##ⴳ
##ⵏ
##👉
##♠
##🤷
##ξ
##ב
##ڊ
##̶
##ω
##ί
##ū
##ڹ
##ۗ
##🌻
##̨
##ٳ
##θ
##ܕ
##ܡ
##һ
##А
##ţ
##🕊
##დ
##φ
##ή
##ツ
##õ
##☻
##ڦ
##ண
##ò
##ڔ
##้
##เ
##ย
##็
##ڭ
##÷
##ŋ
##☝
##О
##Я
##В
##И
##♛
##💥
##վ
##✿
##🌟
##≡
##✅
##ッ
##ブ
##մ
##̄
##▬
##☹
##ł
##Ö
##۞
##ۤ
##แ
##😜
##ア
##モ
##¢
##⚽
##̇
##Н
##Й
##ώ
##☞
##ख
##✒
##⭐
##द
##⠀
##┈
##🇮
##ă
##͡
##ۀ
##č
##═
##Р
##ۖ
##−
##ζ
##🇩
##Б
##ɱ
##😴
##ß
##ⵉ
##ⵍ
##ⵡ
##🧡
##̧
##✎
##̲
##ロ
##▪
##Ł
##Đ
##ǿ
##ś
##Μ
##░
##▒
##🌞
##►
##П
##̷
##스
##❥
##ミ
##ۑ
##ۨ
##ँ
##♨
##ۣ
##ⴷ
##ล
##ф
##☜
##ą
##🎶
##♩
##▌
##👑
##🔴
##❄
##😻
##╠
##न
##😱
##Ľ
##Ą
##Ç
##✓
##✦
##🇷
##💫
##⚡
##ď
##📍
##ۜ
##ڶ
##↔
##➖
##ږ
##ḥ
##Ð
##Å
##あ
##խ
##👆
##◣
##◆
##❖
##メ
##๑
##Ω
##ᅠ
##ї
##の
##→
##Ϡ
##☏
##М
##ƽ
##🇬
##◊
##ⵓ
##ⵣ
##⬇
##≈
##К
##☀
##ړ
##♦
##✽
##🙁
##ʃ
##ő
##🔵
##़
##↑
##ⵔ
##ȫ
##∙
##💯
##ะ
##ิ
##ท
##ף
##국
##❣
##ܓ
##Θ
##Ļ
##☂
##Ü
##☃
##ŝ
##Č
##ҳ
##─
##Ḥ
##ョ
##Σ
##▲
##Т
##ך
##ĸ
##ψ
##Ξ
##╚
##ジ
##׼
##⋰
##ウ
##한
##ო
##ส
##Ï
##ܔ
##🔹
##ۇ
##ả
##ஓ
##წ
##∂
##۾
##ŷ
##Є
##Ñ
##ม
##Ŗ
##ஜ
##ܨ
##̸
##Ҳ
##Ê
##್
##്
##⊰
##♕
##⊱
##∫
##ֿ
##◾
##ށ
##̅
##Ŧ
##▶
##♣
##✲
##♢
##ビ
##ڲ
##▸
##Ť
##✉
##◘
##ઇ
##ไ
##⚜
##ੀ
##҉
##▃
##▅
##▆
##▇
##▷
##✖
##৲
##♔
##◇
##□
##ĉ
##⦁
##Ғ
##グ
##◀
##🔻
##▐
##̡
##ベ
##ị
##₡
##Ψ
##⭕
##◕
##☰
##╬
##▫
##ⵖ
##Ʒ
##ஃ
##📌
##̊
##▂
##ѽ
##ⵙ
##ⴼ
##▼
##┨
##╝
##๘
##╣
##ೋ
##ਿ
##▽
##װ
##Ḿ
##฿
##ḋ
##⋙
##Җ
##♬
##ư
##ஹ
##∑
##ǁ
##₩
##◤
##☎
##▣
##ฒ
##↕
##ॐ
##╗
##⇐
##◁
##◙
##↵
##ಞ
##◐
##ʋ
##҈
##Þ
##ˉ
##▏
##╯
##ᴍ
##ऋ
##હ
##ஊ
##⚛
##✪
##ㄨ
##Ģ
##❧
##ৣ
##◂
##ஷ
##৵
##゚
##৴
##↡
##₹
##₫
##❦
##🕔
##ঔ
##♭
##๐
##◢
##ऊ
##ʘ
##❞
##▧
##┣
##⚑
##♞
##◑
##⋱
##ჲ
##֝
##┫
##◥
##∥
##⋘
##ᴥ
##➽
##ال
##لم
##لا
##ات
الم
##ان
##لي
من
##ار
##ية
##ين
في
##ها
##نا
الا
##ير
##له
وال
##لت
##لع
##ام
##ون
##ري
الع
##را
##لى
الت
##وا
##لس
##دي
##ما
##ست
##اب
##لك
##لب
##ور
##يا
##لح
ان
##ول
##لق
##لأ
الس
الح
الأ
##لف
##بي
##لو
##هم
##اد
بال
##لله
الله
##اء
عن
##لد
##لج
علي
##لش
##مي
على
##لن
لا
الق
##ائ
الش
##وم
الب
##عد
الج
##وي
ما
مع
##ني
##رب
##ذا
الن
الد
أن
الف
##رو
##اف
##يد
##سم
##رك
##من
##لص
##يه
وا
##لخ
##حد
##نت
##ود
الك
الخ
الص
##بر
##حم
##سي
##اع
وت
الي
##لإ
##قي
##تي
##لر
##في
##قد
الو
الإ
##عم
##دى
##با
##كر
##وق
##لط
الر
##كم
##يم
##رف
##حت
##اني
##لذ
##سب
##لام
##مر
##يل
منت
##عة
##اه
الذ
##يف
##كن
##يت
##لة
##يس
##رة
كل
##قت
بن
##بد
##خر
لم
تع
إلى
##لال
##جه
##لغ
##مع
##اص
##فر
است
##كت
##وت
كان
20
الط
##وب
##قة
##دا
التي
##يب
##دة
##سا
##صر
##يات
##بار
مت
منتدى
##لث
##حمد
##شر
وأ
##حب
أو
##ته
##دم
##اج
مج
##رض
وم
##لية
##ذه
الث
هذا
ولا
المت
##وف
بعد
اله
##عت
##اض
اب
##فس
##وع
مش
يت
##كل
##در
##الم
وه
عم
##كون
يا
##يع
##حة
##صل
##بل
##وس
##نه
##للي
ام
##مة
##خت
اللي
##ارة
بين
وب
والم
##حي
##هر
قسم
##عب
##ده
تح
201
##لنا
##وج
مس
الذي
##عو
##ثر
##تح
لي
وق
قال
##خص
وس
هو
##اري
وع
##عض
##قا
##قه
##الي
##هد
##راء
##رت
##لز
##ارات
##نة
##مه
##رد
له
##رج
با
##رح
##وري
هذه
##لات
تق
وي
##بح
انت
مد
##رق
##فا
اللهم
العام
يع
اس
تم
الغ
##وات
##وض
##ويت
##بت
وان
##كان
مح
عليه
##مل
##وز
##ئيس
##عا
الى
##اح
اج
للم
##سة
##فض
عند
النا
الز
عبد
##ند
##ره
##قط
##كي
وج
تت
محمد
##عي
##به
##زي
بت
بر
##يرة
##فت
يق
والت
##ديد
او
تج
##بة
المس
اليوم
اي
لت
##ورة
##er
##انية
تص
غير
بم
##عه
##نس
شي
##ريق
فى
##ولي
يوم
##اس
##طن
أي
##ظر
المنت
##ربية
أم
المع
##فع
المش
يم
لو
تن
##قل
هي
##طر
به
بد
قد
المن
ات
##وى
##وان
##ارك
مست
##كثر
إن
بي
##كس
##يني
ون
##ولة
المج
سي
##ميع
عام
اخ
وح
ذلك
##اي
العين
مط
##از
##رائ
##ركة
لك
اح
اع
##يون
##دد
##وه
تش
##ربي
حس
##مال
##ليم
قبل
##وقع
##أن
##دين
##جل
##لري
الاس
##00
##طف
ومن
##ياه
وز
##قر
بح
##قات
تس
الري
كما
##زة
##كا
##بك
يج
الان
اش
الام
المح
انا
##ديه
خلال
##وال
##ضا
الاست
##مت
حي
##ثل
مص
##خل
##نان
##عر
##وية
##عل
##نية
بش
القر
ست
##ثير
##وله
##يش
العالم
المست
نفس
##افة
وك
##صف
##الة
##رم
##طة
بعض
وش
##تك
هنا
الموا
##غير
##رام
##ذلك
الأم
##باح
##وك
بس
وإ
##راق
للت
##لوا
قلب
التع
##وار
كت
فيه
##ولا
##مد
موا
##فضل
ثم
##روب
##رس
##حدة
##ريد
##عاد
##تها
المص
##حه
##لض
##لآ
##راف
للا
##مو
##ئة
##غفر
اذا
ين
##ناء
وف
##جر
الرياض
أب
##مات
بك
##اق
الناس
##قال
##وني
وهو
##رات
اص
الض
لن
للع
##بير
##ميل
##اش
الآ
يح
##ينا
##ضي
##رش
يست
##تى
يس
وص
##اره
##تم
##ماع
##هي
##لرا
##اط
##لاث
لكن
رئيس
وفي
##بات
##لان
##ديث
كانت
تط
##ارب
##يك
##ديات
##اريخ
للد
يش
احد
##وره
##ذكر
مؤ
فيها
##بية
##اصة
الرا
السعو
##جد
##يران
##سية
##عود
رس
##ابع
ولك
حيث
الشي
تد
##هل
بها
##ظيم
يكون
فر
##بط
19
##ياء
##كوم
تو
##حر
##الية
حد
لأ
##قب
##ضع
يد
##عيد
أس
السيا
##حن
المد
##مان
مو
##امل
##كري
وقال
اد
الإس
##on
العربية
شخص
يمكن
والأ
##الله
بالم
حتى
##كد
قر
##زر
بق
بأ
تب
##ادي
##سات
لح
##شف
##حات
والع
##نام
##قدم
##قع
##شي
##ضر
رب
##سن
آخر
##لامي
##عمل
##وح
لما
لب
##صال
##ساعد
بط
مخ
##اخ
##ائل
##ارج
اخت
حول
##لوب
##at
##طفال
عملية
خط
##انا
##ur
اق
المنتدى
تحت
##فة
كلم
التح
##يان
قروب
##اك
##نيا
مثل
##جت
عدد
ابن
المؤ
لان
سبح
لها
الرئيس
##ركز
##اله
ود
تست
مصر
##لاح
جميع
تف
واحد
وما
وسلم
##ديم
##هما
##باب
##يز
صباح
دون
فت
##ماء
فقط
سبحان
حق
##حدث
##راج
سن
##ورية
##بع
##تر
##ينة
##ضاء
وقد
##راه
##وة
##صد
##افظ
أنه
أخ
النظر
##تحاد
##طي
##ابة
##زل
##الك
مجلس
مق
##ادة
##هه
##لاء
الأس
والس
##ظام
##خدم
مب
##جة
##خرى
عش
##فه
ملي
##كبر
##فل
انه
اعت
إذا
ليس
بالت
##طقة
شيء
فإ
##ليل
##وص
##ar
##وير
حتي
الانت
##جم
دي
خير
##مس
##لين
##as
2018
##لاق
ولكن
##انون
مطار
##ارية
##فاع
##ديدة
##جي
##قم
##لسط
##واء
##ليه
وكان
صور
##ائر
##اث
تكون
##الب
تك
وات
##حيح
##عمال
##صول
العربي
##سبة
تخ
##غي
##راك
المنا
##زك
##يام
10
اف
##ابات
ولي
هناك
لج
جن
والح
الهلال
الملك
الذين
كنت
للدعم
وخ
##الف
نت
بل
الوا
##عار
##رها
المتحدة
##ارس
علم
ور
احت
##صة
والا
اني
اكثر
##عاء
##سام
##فظ
أع
##ختلف
بلا
الشيخ
##ديو
بع
##قيق
والله
##كتب
مك
##حا
##ريم
التج
فان
##قتص
المخ
تأ
المغ
عليها
##دام
##ريف
دا
السعوديه
يقول
##تويت
يو
إلا
##ضيع
##يري
##لها
##وط
##قول
##نين
الصح
##حك
##سر
##كومة
##جن
مم
##ابه
منه
ري
##زم
ترك
ولم
احب
##روع
كيف
الال
##عضاء
##لامية
##ger
##وضوع
##ضاف
شركة
العامة
##اته
الجز
##نيه
وقت
##امج
##ذي
##عية
##نامج
المو
sur
##لظ
##سبب
حال
بان
##الح
##نى
##ظم
##روض
للح
##قبل
رج
لنا
##قى
حز
##in
11
##شت
تر
##ريك
لله
200
صح
##لقة
الاخ
العلم
نف
##هلي
##ادر
##or
لق
السلام
##جز
المط
مبار
##زيد
محت
البي
##لاج
اغ
##لاب
عندما
وط
الحمد
الظ
للب
##ولى
##gery
المم
منها
الفر
أص
الاتحاد
##فق
يص
05
surgery
بج
الأخ
حين
##سه
الدين
##كو
هل
فلا
السي
عبر
الخير
##الث
الرس
##ولية
##ويه
##وقف
منذ
##ريب
هم
##لون
##لوم
##دارة
وهي
##وائ
العم
المر
الخاصة
حم
##اضي
الوز
##نسان
عمر
##يج
العمل
##ودة
يارب
##وريا
قص
الدنيا
##انيا
والش
ضع
##غم
##ظيف
الوطن
##اهد
موقع
##واصل
سب
استغفر
##هو
##بيه
##يره
##زيز
يخ
##ارت
##اا
##قص
وجه
##الد
الكت
جدا
##ميز
حيات
##جهزة
كثير
تغ
يب
##واب
las
عنه
##داد
##اعة
صد
##بيب
عالم
##كتور
عليك
لهم
##اذ
فقد
أبو
بص
##جيل
##اتب
العراق
أحد
بما
نص
التص
##وث
##يادة
##es
مي
##an
للس
ثلاث
التن
12
##اتي
##راض
طلب
##نك
##راد
قط
##وء
##حق
رتويت
##تمع
##ئي
افضل
##ركات
فع
كبير
بإ
##كره
##وش
##للغ
للأ
##يرا
لع
##روف
##عودية
##ئا
الصف
نس
اللغ
##ليات
ربي
##ائق
14
يتم
##احب
##ميم
لات
##لرو
##ولار
والإ
اط
##ينه
الجن
##خدام
انك
مر
والد
الثاني
بيت
لس
بشكل
للج
حا
##اركة
الرو
اسم
##ائية
أكثر
صلى
اه
عمل
شر
##لمين
سيا
واست
##ac
##لاف
15
##عين
ار
فال
الأول
دائ
أش
##en
إس
كم
##أس
برامج
##سين
##فاق
نح
نج
##بكية
##ياة
##أة
عيون
والن
##اة
##حاب
التعليم
بأن
والص
يط
عبدال
الحياه
##وبي
رسول
##ائي
قلبي
مات
عد
الوقت
##ذن
شك
##عات
التس
##لومات
فإن
لإ
##لاد
##وسط
فا
السعودية
الشر
لأن
##مام
وانت
لبنان
##قتصاد
##خذ
##زه
تلك
صف
لمن
جديد
##ضافة
##al
##داء
##طية
العظيم
##باد
ضد
##امعة
##للا
عق
اليه
العق
والج
الولا
النصر
##طني
##ويل
##لهم
الماء
اث
##وو
مث
ير
خاص
##خول
##ساب
الخط
رحم
##مبر
منتديات
وزير
اخر
مما
يف
خدم
أف
نفسه
##انب
##وتر
##دينة
اول
الشعب
##رفة
الحب
##لسطين
الاجت
للش
##سبوع
المياه
##جات
##الى
##شار
ذكر
##انات
الاع
المه
##ساعدة
##نع
##اما
##زن
الاهلي
البحر
##لاه
ريال
##صار
##حث
##قاف
أيضا
##اعه
الليزك
ايران
##جب
نها
سلم
الثالث
اللا
##حمل
بنا
الخارج
##امة
بخ
بدا
##زا
رقم
##ريه
الحكومة
##قاط
القص
وذلك
##الت
##ونه
##ذر
ارت
النبي
رم
##is
##بيض
##لكة
مجاني
حساب
##نج
##موعة
##رائي
##طار
ضعف
##دف
حب
التق
باب
الات
##زق
شع
العرب
الفي
ey
طريق
##خرج
البر
يجب
لكل
ماي
قائ
##ساس
##يدة
##فار
##اعر
الساب
يؤ
تاريخ
##om
##لل
##يين
للعيون
للق
بسبب
##للب
كن
مكت
##روس
والخ
الاحت
##بدا
##ورات
##لعب
برنامج
الشخص
ومع
مكان
مليون
##الات
صوت
##المي
الاطفال
لش
كتب
فيما
##هب
##وفي
مغ
##ضم
جز
##وجد
اللب
الجمع
ابت
##يده
##راب
##سط
##واج
##ساء
##ناه
عدم
طب
##عاده
أحمد
الحر
الموقع
خلق
أبي
داخل
##ذك
##ونة
والف
إلي
بالن
eye
مركز
##تين
الولايات
سنة
##ثم
يعني
##هاب
جه
الرح
##نوات
##قف
الحديث
13
اجمل
##عداد
##ضة
##انيه
جمي
##طق
##ظهر
##شد
نحن
زي
##فاء
مدينة
##ائف
وانا
الشعر
الحد
الإع
عرض
##طيع
##am
مختلف
وهذا
وين
##ديل
بكل
##ئه
الوطني
السنة
وحد
اللغة
الماضي
روا
وجود
##ياد
ولو
بدون
عز
العس
شهر
واب
##باء
ريت
أخرى
##امي
الفت
##مين
رص
نب
##وتي
أد
اكبر
##قق
##ولو
##غط
##اعد
عبدالله
اخبار
##فو
##ائب
الآن
عشر
لد
الدولة
الاول
مساء
والق
وأن
##بيوتر
فقال
نظ
حسن
يحت
الثلاث
علا
الشع
##قدر
صاحب
الشباب
##ذب
##اعات
##شاء
##عاون
##راح
##جا
18
اللبن
##اكل
نعم
فأ
الحق
عين
نوف
##انه
##رائيل
القلب
##ion
الكريم
جمع
الخاص
##يق
الاد
نق
الكويت
قام
العد
مه
##طا
بالله
وإن
را
##لفات
##خب
حدث
دائما
الاش
##تنا
##بيل
فض
الأولى
التش
كي
دين
السلط
16
##كرة
##ظمة
##كية
##ئية
دولار
بلد
##يدك
الجيش
عس
ينا
##تهم
سوريا
الدكتور
عاد
نش
##ورد
الدرا
والتي
الصور
وغير
ابو
##صي
##ديك
##ريط
##تمر
قت
الموضوع
حديث
##يفة
##شق
ويت
أول
2016
##رير
واس
جديدة
يعت
##حبه
لكم
الأن
وتح
المجتمع
ته
التى
قب
كب
التاريخ
##ورا
##ياب
##عادة
الطب
##ونية
##قيقة
الجديد
يك
الدولي
HD
ريتويت
القط
##دق
السعودي
العاب
مف
وعد
اليمن
وزارة
بار
##فيذ
أق
كتاب
القسم
الاح
##اهرة
منهم
##واد
##ic
أما
انس
##مية
##طال
##خاص
نشر
##طه
باللي
وث
وكل
التد
البلد
##ابل
رح
##لحة
##وما
والب
##هلا
وضع
##شة
##جع
##راهيم
##صرية
##ميس
##كمة
المنتديات
##شن
قلوب
متابع
##act
##واع
##افظة
##بلي
زد
##مني
خلف
العيون
خاصة
##باس
##ضو
للن
الخلي
الكثير
نحو
2015
##يانة
راح
محتوى
ذات
حما
انف
ههه
##صور
##ماعية
الرج
بغ
أمام
منا
مره
##رنت
##يدا
##مهور
##باط
فيديو
مرت
##يمة
##هدف
##ميه
مبا
البيضاء
##ضح
الجنه
##روح
بو
سا
17
##ابت
عائ
##ضايا
laser
المسلمين
25
##آن
وتع
##زين
##رين
رأ
الشرق
منطقة
المبار
الشبكية
رد
##اتف
الدول
##ليا
جاء
##ضور
##بيق
##صب
الجم
##طاء
أغ
##خابات
##ريقة
الأد
المنطقة
انها
##جاز
كلام
##يبه
للف
اكت
مز
نادي
امام
فريق
بالإ
##افي
مض
##امن
ينت
وار
عليهم
##ورو
عاج
##ربة
##لكتر
##وعة
##هاد
عشان
البحث
##ضية
##لول
الثانية
السود
يغ
العلا
##ويتر
مسؤ
اشت
أخبار
##برا
المق
التف
##ارا
فوق
##جاه
دور
دعم
الحي
القانون
##وبية
##قاء
بنت
بالع
المال
نوفمبر
##موع
رصيدك
أح
قوله
##ماعي
لغ
وليس
##بارات
##ابعة
الاث
العالمي
30
الطبي
حزب
مدير
##ed
##سك
النظام
##شرة
##ظه
##ياده
##زال
قانون
خص
احمد
حلقة
خالد
##ركه
##قتل
نا
اجت
وض
##وبر
نع
الاف
##حراف
ضمن
##نسي
لاعب
قدر
سوف
المواضيع
تنا
الخدم
##ادم
المب
للر
كام
##وده
حسب
##زمة
cat
استخدام
المجلس
للط
##رياض
##هرب
تعالى
الاسلامي
والث
المساعدة
تصحيح
##ولوج
سعيد
نفسك
محا
##خي
##لني
##امه
##ضان
الفريق
سر
الداخ
##هداف
##عى
##رحلة
منك
اك
الأمن
مشروع
قدم
جمال
مسلس
حص
رغم
##11
##وبة
تؤ
سوق
##ولات
للك
##قيقه
امر
رائ
##it
الحياة
مجال
تعلم
البشر
2017
نظام
##سباب
ني
التو
در
##طلب
الأمير
سيد
##ائج
##يته
##اصيل
بالح
وسي
##ومة
##ليز
##aract
عنا
فن
##رى
وعلى
ليست
##ادث
##حية
الكم
##جراء
##ارف
المصري
##لسطيني
##لاة
التط
##ستان
##هير
نفسي
ملت
##هاز
##وها
مجموعة
بالق
##em
حلو
فولو
cataract
مخالف
##هيله
بالليزر
ريا
##مهورية
##ابي
##رفع
خلي
إت
سنوات
##لته
علينا
##20
##للج
##الا
##سل
##نب
أهم
##همة
الاخر
##رامج
والك
النج
السوري
داع
المغرب
توا
##علق
الاعت
نور
##لانات
صالح
تعرف
ملك
##لوك
##ونا
##طان
از
وغ
بير
##للق
النف
##نف
##شا
##رجع
الابيض
24
باست
##ريح
الليل
##اتها
الترك
##ؤال
الخارجية
##اهر
اللج
فهو
الأمر
##غب
اهم
##ارع
الاقتصاد
##ik
##ستر
وبعد
المركز
جد
كثيرا
أنها
يكن
##ربع
جميل
أفضل
##رهاب
سم
##زب
##st
إع
النفس
للإ
بعيد
تحميل
يعرف
##جهة
بب
بالس
رجل
خارج
##نسية
الها
حبي
##بليغ
المملكة
اللق
##ولد
##ونس
البرامج
السف
##لما
العالمية
##ضرار
شه
##ائد
أث
##فعل
##غل
رحمه
##بحث
عنها
البن
ألف
بلغ
ابي
سلمان
الوطنية
الانسان
الكلام
معه
##غيير
للص
لقد
مهما
##ro
يحب
العمر
تقدم
100
مبرو
الإسلامية
اختر
يه
معا
##قائق
بالأ
##انى
##طلاق
##جاج
أج
كال
##ديق
أجل
##لائ
##بيع
##يلة
##وخ
التبليغ
مكتبة
نقل
الخميس
سير
##كرية
روح
الجديدة
الكمبيوتر
أنا
دعو
##ad
##بدأ
سلط
حقوق
القرنية
حكم
السابق
بالك
اض
##لعاب
حاجه
اما
ند
لدى
دولة
الدوري
واتوب
##طب
الدولية
القد
النار
مسا
المف
المرأة
واج
أمس
التأ
الامير
##اهدة
##رشيف
جع
كبيرة
عقد
تض
##تمام
##وين
بوا
باسم
##انت
حر
المعلومات
##طلق
تعت
بني
##قطع
وبين
ول
##ويد
بالد
شكرا
##سد
زوج
##شات
تقوم
##اهل
الجزائر
##ذهب
##اده
إدارة
##خصص
المدينة
21
القدم
##سسة
القران
موج
تحب
قلبك
##لمه
السيد
سهيله
ناس
المحت
شعب
اقت
ساب
##روج
الصين
##ؤون
##ومي
حالة
وبحمد
الارض
الجميع
لز
قطر
الحصول
الإلكتر
##انة
الأش
مواقع
##شه
صل
البلاد
سمع
بات
جما
المسؤ
اهل
عمليات
المواطن
محم
عرف
قلت
##يار
السياسية
الإنسان
دم
##وسف
وسط
وهم
القرآن
نز
الوزراء
تنت
سعد
##ناة
مرة
فيك
تقول
##قافة
##درسة
البط
دول
للو
عاما
فرح
يريد
الهي
درا
##ثي
موضوع
سكس
التربية
##ميد
الحكم
##ولك
المك
الخليج
يوما
الإم
الجام
##ont
واح
مستوى
##ومه
والمع
لعب
الشه
بالخ
الهند
ممكن
انش
قول
صحيح
فلسطين
الجه
##ابر
##ريكية
بنفس
عاجل
رؤ
##le
الحمدلله
22
##سمع
##عيم
##99
ph
##ديا
الرجل
يقوم
موس
##اقة
##ماد
##فات
##كار
سنه
رجال
بقي
##ريض
الشريف
تركيا
صلي
نوع
ولد
##ربعاء
الوح
##ربه
##روط
##ولت
##جان
رمضان
وير
مان
ملفات
##نون
الكتاب
##رائيلي
تجمع
الرئيسية
وام
إليه
سليم
##رر
##راع
والر
##ولين
##ليق
##راقي
صار
لص
إتصل
يأ
دقائق
lasik
##ريقه
بيع
لتح
لدي
الفض
الاب
##عوذ
##وضع
مسلم
واف
الحرب
وعلي
##قرار
النها
##واق
هدف
فتح
يض
مال
ليت
امن
اللاعب
##بتد
ايه
المز
الاص
##ريكي
افت
الخام
##لمات
العديد
تكن
تز
محد
روس
##هاء
أهل
##ريده
##عرض
com
##اول
إب
##ent
الأرض
##اعت
##شرين
##يط
فق
##سبه
الليزر
##سسات
##قبال
والاست
تطوير
##عزيز
يوجد
php
استغ
##ادل
شيئا
جامعة
##علم
طيب
##رع
##BB
التواصل
الصفحة
##يمان
مار
##ميزة
##ve
تا
صوره
##ئات
لاب
مشك
الفلسطيني
##قية
##تيار
##لكه
##re
العلوم
الدفاع
##يراني
##وبه
00
بمن
##ظة
##لفة
##قيم
##ليف
طال
كون
##شك
التعاون
البيت
##روحات
الجمعة
##قسام
وأضاف
السبت
لذلك
شاء
هال
بيان
##ri
خدمة
دع
لقاء
##ذاب
بناء
سف
الشركة
##كات
عليكم
اليك
##بره
##جاب
##جار
واحدة
الصباح
كله
phpBB
الثلاثاء
##عام
القب
إد
##ارض
وآ
##55
حاج
##كه
الجوال
##انوي
الموسم
##قرا
العربيه
##رضي
##ريبا
السياسي
##اليه
##راس
السيارات
##تا
##دية
##لدي
طبي
والذي
انحراف
ايام
##ظائف
تويتر
الأف
المواقع
لاي
الصحة
الإنت
بدأ
حسين
ويس
انفصال
وبحمده
##افع
##حل
##ec
سلام
كانوا
جانب
الاشت
بالرياض
الامارات
طلبات
23
ملا
الرحمن
البحرين
##افيه
باذن
##ويا
كافة
الموت
2014
جنوب
قرار
دوري
##دت
فه
##هداء
النص
بف
الجمعه
##يرات
يوسف
والان
رضي
نتي
النب
##ؤلاء
ملتقى
##لرب
رسم
##ويس
##وضح
##ويات
أمر
قوات
وعن
ركن
كر
##ينما
الحا
سيت
##هام
##ينك
بث
اضرار
المالية
##ئب
##قالات
الامن
المصرية
##شفى
##شاركة
وتم
الاسلام
عب
##رفيه
##ريات
##ارق
##صه
سواء
راب
##بخ
إذ
بالش
المشت
##ريا
تحقيق
##ليزية
أيام
##بداع
وصف
مقابل
##وجه
أعلن
تلق
كشف
بور
الفلسطين
سبب
عباس
الاج
صيانة
##سيط
##كتر
الذى
حاليا
امي
ارحم
أنت
##50
منتدي
الكبير
أكد
##ائه
سك
##ناك
ده
مسلسل
عط
##صالات
الطريق
سام
وكانت
الاخت
##الغ
رفع
والط
سعود
بالج
##بكة
##املة
مني
ترا
فك
##وغ
مشاكل
وتش
دبي
الاغ
##يوم
##عون
السر
القلوب
وكذلك
أجهزة
2013
عدة
أكت
القيام
##راضي
##وفيق
دار
##لبي
الآخر
##ليك
والمن
رك
بهذا
##ائم
تدري
امس
عص
تصميم
الأع
علاج
الشمال
##اصمة
درج
اجل
وحده
##نسا
يناير
كثر
الاثنين
الصنا
التسجيل
الرب
للبيع
##et
حرب
للخ
مبروك
مفت
عني
اللجنة
المث
##oo
الفنان
صلاح
الثالثة
تطبيق
##ولوجيا
طالب
شاهد
المسي
نظر
أكبر
حل
سبت
كلها
##طات
اللبناني
الأور
السماء
شمال
يعمل
##عاية
القوات
##ارد
تعليم
بنات
ربنا
كلمه
الدم
الخبر
انتقل
وطن
مواضيع
##افه
واص
احبك
##ing
لف
##سجيل
العلاقات
قل
للي
إنه
برو
تقديم
غدا
الماض
199
رو
والغ
##اتك
معت
النه
وتن
عي
##عرف
فمن
قالت
##ياس
##ئاسة
شباب
ظهر
شئ
الأخيرة
يعلم
##حداث
الحم
الأح
الحوار
##الج
يمكنك
##ساد
كامل
الطلب
الروح
بينما
##رحيب
راس
لجنة
ايضا
لأنه
##يفه
كذلك
الدعم
البعض
##ريقيا
شعر
مقد
##قيت
حياتك
عبدالعزيز
تري
##ou
يعد
##راحات
نقط
26
عنك
معك
##اصر
الإسلامي
ذن
##دينا
##مرار
لهذا
الأعضاء
سيكون
السعاده
عروض
##هور
##كة
الساد
عربي
يستحق
##حف
##فسير
المرحلة
هاي
الثقاف
كث
##10
حض
##خة
##ردد
جدي
ثلاثة
##جوم
الساعة
##شرات
مشت
بالا
معد
اعد
سعر
داعش
##عليم
co
الفلسطينية
##راءة
الحسن
طوي
##رافي
شبكية
ويع
افلام
نسي
جري
##لديم
فهد
##شفي
القنوات
أت
##ادرة
يصل
مساب
عيني
روسيا
اجعل
تنفيذ
المعت
القاهرة
الرياضة
تعد
الشهر
##طلا
50
##لمة
##شره
##كذا
##روطية
##مم
ويم
جام
وبال
المؤمن
النساء
خلا
صدر
##ذار
ليب
لاست
##بدو
للاست
##فرح
##واطر
الرسائل
##نات
##واز
##il
البيان
رغ
جمهور
##رمين
الإمارات
##اليات
وتق
ذا
مرض
مهم
نتائج
لط
##كيل
نهاية
الإد
ابدا
المقبل
##قين
المقد
##كين
شا
مرات
خي
ممن
##حمر
التخ
تنظيف
##وصا
الانتخابات
هؤلاء
2012
والمس
27
الديم
عج
النادي
الصلاه
الإسلام
لاح
قيم
##للح
ساعه
ماذا
28
##اميم
الطفل
##قامة
الباب
مدونة
##يتها
تمت
##حيانا
##ريكا
السوق
##راحة
فعل
فلو
وتت
اللح
##يفون
الأخرى
مدون
نست
##زام
سج
فيلم
استش
##he
اللقاء
وست
##ot
##رفه
##حمه
حفظ
المزيد
##متع
والمر
##واف
القاد
##ايد
##ابعه
فما
تعرض
العن
##ظف
خدمات
##امر
يز
##ضب
##66
ومت
##وبات
الأمريكية
معلومات
واخ
غزة
الراب
شركات
بينهم
##ندي
للغ
إسرائيل
##افر
صنا
##اية
##امين
##والي
##ناب
الداخلية
##ريع
المسا
برا
الأعمال
البصر
##حين
المقا
##فيد
المخروطية
هد
##ثة
##غيرة
اللبنانية
الفيديو
ولن
##ليب
##اريع
##۞۩
قطاع
اصبح
بهم
##um
نصف
##ra
الاسلامية
##رهابي
##ضمن
عيد
##ثمار
يمن
##كلم
واع
خبر
تجاه
##واجد
راج
بشر
انته
جزء
ورد
##لور
##عك
تنظيم
##قيل
##سمبر
##جنبية
قرب
الدخول
سما
معنا
نه
محمود
##ation
مشاهدة
##يح
##كال
دخ
المنش
##حص
البا
##ردن
وصل
تعمل
ظل
##شيد
شكل
##قتصادي
##نيات
2011
##وتيات
كلمة
الطيب
تريد
##ظار
##رفين
قتل
الاز
حركة
##ريل
أعمال
التم
##غر
السب
غياب
جنيه
بداية
جعل
بري
##وجيه
##سان
##كرم
ويب
##سيه
مين
ديسمبر
الجمهورية
##افحة
سجل
الأص
العراقي
العسكري
بذلك
##سمح
مالي
يذكر
الدولار
تذكر
قض
العنا
##بيد
السن
الشركات
##راجع
##ئيات
وفق
حبيب
##هن
عضو
##el
جده
متوسط
محافظة
سوي
لخ
التغ
الجامعة
وتط
واذا
اجتماع
المشاركة
مدريد
إبراهيم
فهم
ونحن
##لفزي
الكاتب
جي
مباراة
مارس
الاجتماعي
سليمان
البد
##اسم
الرجال
النس
##77
##غيل
دخل
إست
رفض
التحالف
هاتف
إي
المناطق
الجما
باك
مليار
الحدود
الصلاة
##شل
نتيجة
لماذا
التر
##سون
للمنت
##فاوض
الواقع
ونا
السنه
##جلس
الأخبار
##ثار
الالكتر
الخدمات
جم
المستخدم
الاعضاء
مخت
الاخبار
جلس
##فاف
##لمان
##30
لاين
##كير
الحكوم
##ورك
##طع
الكهرب
بلاد
##لاك
الموج
##سبات
الفق
بمع
الدي
البرنامج
كف
##ol
ضر
##رائب
##برز
##وروبا
بالنسبة
##وانين
of
##هرجان
##غال
المشروع
ها
الحلقة
الشت
##يتك
أكتوبر
بالب
##ورت
يال
النق
النوم
طول
##قاش
البريط
##راعة
##صدق
الأط
اذ
بدر
فهي
##12
##فيق
مالك
دورة
عاش
واد
وله
##قيقي
مظ
40
##ربعة
##id
المواد
المدني
سين
معرض
القرار
احسن
##لمي
بنك
الايام
المؤتمر
##امت
كلمات
الوضع
##درات
##ضه
##رجم
##ذة
متن
##وشوب
##عاب
عندي
##وفير
##ندق
كلية
بالص
##nd
الدور
##ماية
ستار
الكتب
مصدر
الشمس
مشاركة
ارتفاع
نصر
الاجتماعية
الروا
##رجمة
##عيش
المدر
سبيل
##وعه
##ونيو
أصحاب
امت
قلوبنا
وفر
##رسال
للجميع
دليل
سعو
معي
##رسل
##انك
الفرنسية
الشرطة
استغفرالله
وعم
الكون
المختلف
الاجتماع
مادة
##ساسية
##داول
يزيد
العزيز
نم
الرد
##يفا
##واك
الفترة
الأز
##ub
السودان
الأطفال
29
الشاعر
##فاظ
ليه
الياب
بز
الإدارة
##ئين
واعت
وعلا
##رائيلية
ارض
##اتهم
##لرائ
كذا
قوه
##ائرة
##وتوشوب
##سيس
حكومة
##سف
وذكر
فلي
لهذه
##ائع
##دير
دخول
تجد
##60
مصادر
صلاه
##وفر
##يور
حياتي
##آت
سؤال
سبتمبر
عنوان
وتس
تي
##ابية
قم
##واه
هت
##تاح
مؤتمر
##لابس
المكت
حدثنا
##أي
الحبيب
صغير
دروس
##هران
##33
واله
ابراهيم
##قلال
الامر
غيرك
اغفر
##باك
الرائ
وقف
##ستاذ
##جرة
الحسين
##88
القدس
لين
##شلون
الجميل
انتي
اون
##جراءات
الاقتصادية
##وزيع
مباشر
##ادات
قصص
جميعا
##ادت
لكي
الاشتراك
راي
##اوز
##نيف
##فيف
الحول
##تيب
##اطر
##قته
##ساسي
##وسي
##ذف
حنان
يسعد
##غة
##باق
عاي
الفني
لر
موت
##اريه
فوز
خمس
سيارات
بتح
آل
كأس
المهند
تعالي
مباراه
##ريس
##واعد
يحدث
##بحت
##بارك
عظيم
صحيفة
يولي
ماء
##حكام
##كيم
اسرائيل
##ادية
2010
۩۞۩
##ثمان
##راتيج
##40
المملكه
منز
بسم
لتص
ومش
الفن
لوحة
المهم
أط
##راحه
تغير
سورية
كلا
تقد
صورة
خس
##وارد
##رفض
##لامة
##لكم
##صح
بيروت
##شرح
الإمام
نائب
وعند
##رية
##يي
المحلية
عمان
##زو
كرة
ربما
اسالك
##ناق
الوحيد
##ov
##تحانات
##رار
يقدم
المنتخب
الدعو
##قتراحات
يحتاج
المشك
النائب
السياحة
الرم
ثانوي
##تني
الحزب
نيك
##ويق
قلي
##طور
أمير
حياه
القطاع
عامة
بكر
لزياده
بالإضافة
العضو
الحوث
##اطق
المقب
سالم
##فسارات
##مرة
للمت
##ودي
تحكم
هيئة
##لتي
فترة
شهد
##ارير
##رقاء
أثناء
الرسم
وأكد
احدث
والمت
مجرد
##خصصة
التصميم
العلاج
##ظات
##نائ
##هادة
المفت
العهد
العلمية
وقالت
فات
##الس
##فن
انشئ
المرت
المدير
جب
##وام
تابع
المستوى
##ter
اقول
حظ
القدي
##قوق
مقر
يعتبر
إم
السورية
الإست
قاعد
##سس
خال
نقطة
##اعي
محافظ
يحي
امين
##صري
الأربعاء
اتفاق
إنت
موقف
##وانات
##كسر
##واجه
كار
##80
##زع
يتعلق
##برى
طريقة
يونيو
الخص
##سو
جميله
المواطنين
فرنسا
داخ
نفسها
اسعار
بمنا
الحاج
مميز
النفط
لدينا
تمر
تتم
الدعاء
زيادة
##قيع
الحالي
دكتور
##مئ
الإلكتروني
وبر
الترحيب
##فرات
الطلاب
كلما
##مار
خيرا
عربية
رواه
وسائل
قطع
رأس
صعب
عت
واش
##واح
وغيرها
لانه
معظم
كس
الاه
امير
##بيت
المتع
الزوج
الترا
بشأن
##ريت
عنده
المحا
##ناس
الماضية
ألم
الفصل
تقرير
##حو
خذ
الرسول
الفوز
العليا
دعاء
علوم
##صاص
##ندوق
المرك
الشم
الرياضية
المكان
حدود
يلت
##براير
المي
بالف
تونس
##راز
##ئلة
تماما
##يدان
لازم
مكتب
دام
مناطق
الاحتلال
مؤسسة
ورب
حمد
برشلون
باقي
السلطة
رف
جهة
بأس
تغيير
##فيه
واض
اضاف
الأب
فخ
لذا
اعوذ
يستطيع
##راكز
الانج
ميز
قناة
##لوما
الهيئة
مساعد
##انوية
شعور
الحلو
ماب
وجد
شرق
عندك
الدست
انسان
الست
##قليم
ياب
##ذية
سه
فبراير
يوليو
شارك
##غا
العمال
والام
##غفار
ميت
أرشيف
عف
المساب
##بو
الإخ
القصص
الرسمي
بخير
##ومات
##كريم
الإعلام
يرت
##22
العسكرية
ساعات
01
جهاز
ساعة
نسبة
الخلا
أمن
جيش
##جمات
##ليون
طرف
كفر
صاد
خرج
البح
شرح
##ذج
وتد
تحتاج
##19
المخت
فاع
كنا
##جاوز
رسالة
##اجه
غيره
##ونها
الارهاب
انهم
الفرنسي
##فاض
القت
##44
قبي
055
جو
مجانا
شيخ
حلم
الور
##000
##ريعة
حصل
واللي
##vis
المختلفة
العاصمة
عبار
جان
الواحد
##قتها
##بادل
الاولى
إضافة
بحث
مدونتك
##ائدة
##ولون
##قييم
بهذه
بالط
زين
##ريبة
مايو
##حدى
جزر
محب
##ow
مبارك
##كمل
أعضاء
التفاصيل
##ارضة
##كام
##جتمع
اعلم
##ندية
ملف
الأحد
الذات
##رقام
مباشرة
وكالة
##ياج
الطبية
الحس
##ونت
لجميع
##اركات
وعدم
##بين
تحمل
التجارية
##ذكار
##ave
الفرق
الملا
ثاني
معها
طف
الزمن
وتص
الوزير
##لورد
حرف
الصوت
إخ
فلم
##ائري
##افية
الشوق
تكلفة
القضاء
تفسير
والحمد
وو
شبكة
##فى
صن
الكب
##قوم
حواء
##ؤمن
بغداد
اطفال
قيام
أسبوع
عما
##نسانية
كري
يعود
دينار
أرض
مستشفى
in
صدي
هن
الحج
##فال
سلطان
##ريحات
الترفيه
شاه
الورد
31
##ورين
اخرى
حمله
عمرو
الابتد
##مسة
الاتفاق
رياض
فح
مجموع
للنا
بأنه
البخ
تستطيع
مدى
##70
بسر
مختلفة
##ومان
##رائم
المستقبل
السما
فار
الجمعية
السج
اعمال
##كيد
الشعبي
الملكي
000
##ونك
كاتب
التعلي
برج
عرب
وراء
شف
##ثبت
##قام
مقاط
تعديل
لعم
##اليا
##حتى
كاس
لمدة
##tt
##ظل
تحدث
##فية
مرا
الشخصية
الديمقرا
الرابع
صدق
##معية
##طقه
وإذا
واتس
##شنطن
رق
مقتل
البدا
عباد
ومر
فيصل
النواب
##طين
قضية
زيارة
جاه
وظائف
##نتين
الجو
السفر
الصورة
نجاح
تمثل
سبحانك
الزرقاء
##رشح
الامام
تفاصيل
الهم
هكذا
عنهم
الوصول
موعد
##طفى
ليبيا
السم
الشيع
جوال
الحزن
عض
نقص
##ائزة
ذكري
انق
الحريري
المراه
##سيل
##خلي
طلع
الأسبوع
شوف
##بقي
##كنولوجيا
الأغ
وبالت
غرب
##خدمات
رشد
ارد
فإنه
فس
##دينه
ومس
##سطس
2009
القادم
المض
مدرسة
الرياضي
الته
##ورج
الصد
إليها
##عيه
wave
يجعل
45
مشيرا
الاخرين
العلمي
##ومية
لكنه
##ربيه
نبينا
##وحة
مباريات
إعادة
##اند
دمشق
##جير
ملح
خصوصا
الرابعة
الأسرة
##ثلة
قالوا
التقنية
احفظ
##نم
الرابط
##ائح
##صاب
دفع
##32
يالله
النش
ينب
أه
##غان
الثقافة
غال
الغذ
09
انواع
السلطات
صحة
##سمى
إيران
##نائية
##ويج
##صابة
ايهاب
##كاوي
الذكر
قرية
##fr
بذ
شن
كا
##ag
العبد
المطر
الانترنت
الكل
والتح
الشام
مؤك
ويش
الفجر
ايها
الإنج
اجهزة
الفنية
والمح
ديك
قاد
##وبا
البرد
توك
ناصر
##بلوما
نعمه
##طرة
##سيا
نط
##هههه
صب
زمن
المعد
واخت
اننا
##ألة
يعيش
بهدف
ويا
الصحي
الارت
والز
##ودا
وحتى
يبقي
الغربية
##وته
##زاب
##اااا
تجعل
##لرك
سيتم
تعريف
##تش
قامت
رساله
واحده
لمع
أنواع
##بيقات
الإنترنت
##اعم
هذي
وتج
##حده
المباراة
اعرف
بطولة
للمنتدى
كريم
الشتاء
معهم
الألعاب
الايراني
##ركم
تصل
##كته
العائ
اصحاب
بالض
شو
الجمال
والذ
واق
الوسط
الألم
مدر
الفرح
حجم
##لتها
يقال
قليل
##ضير
مناف
##واة
اختيار
عرش
##لامه
ربك
##نادق
كلنا
##صيل
##رامب
المكر
بالعين
الطرق
المصدر
أشهر
يام
أسعار
##رز
كلي
متي
أولا
الصحية
العملية
مجتمع
الجنوبي
##ربات
وعلاجه
مرس
اسعد
وقع
صديق
قيل
اعلن
##وقات
35
الخدمة
##طح
هام
حضور
##حتاج
ذك
الأمريكي
عشرة
07
أنك
02
##ليش
المسلم
قائمة
الوج
الشعبية
البنك
##شاف
المرض
لتن
الرقم
لام
تعيش
فرق
##الق
الاتصال
وفا
بالر
مقا
موسى
اين
قريب
بوت
حياة
ورا
وهذه
##واني
احيانا
يقت
##وهات
تصبح
##صدر
بحق
فرج
الحرمين
ويست
##ttp
عالية
عمري
اللاعبين
أك
اتحاد
وتأ
##خاذ
خلقه
##لبية
والاج
النور
الخامس
60
حفل
قناه
بيانات
الل
فإذا
بسي
سعودي
##ارته
والبر
ممت
والمش
##وعات
موسي
08
##خرا
##غرب
الرك
##يمه
الاشياء
لاع
##حيل
النت
ضرورة
بحي
##شفت
##ميات
عادل
##جين
ترت
##ضيق
واتساب
##دون
المبا
اشوف
##لبه
Re
ماهو
شراء
طا
##15
PM
عذاب
الأمم
شرك
بدايه
فرض
فب
توقع
قائد
##سيم
المقر
##احة
الحركة
##للو
##per
##us
فيني
الاعلام
رضا
مضايا
الجهاز
وفقا
الكرام
عقب
مكافحة
مافي
اجع
برد
##رحمن
rem
الوق
لنفس
http
##ائنا
الجانب
##لفزيون
يدخل
الشهيد
##ch
يخت
##ظن
العالمين
جا
اسال
سود
الهدف
اسمه
قوة
المنز
اعظم
ودي
06
##قيات
لعد
النمر
لديك
##كادي
##ماعيل
##سامه
المحلي
نخ
##امات
##ai
##حيط
ليش
الجمي
##مير
الاسبوع
لسنة
بنسبة
تعود
يهم
القمر
##وائد
##فرك
مارك
فعلا
تبقي
العرض
العلماء
التنمية
مواد
واحت
صباحا
انشاء
الدوله
##os
##راغ
والتعليم
##لفت
جمعية
##18
المنزل
الجنوب
بعدما
قنوات
منع
##يبة
تسجيل
فج
##قوط
رض
##حدد
شات
##وعية
##صالح
##بول
التحر
واشنطن
الحال
إيج
تاي
ليزك
مقت
ضمان
##ثمر
إش
درجة
الأقسام
محتاج
##front
دف
للسنة
##ay
wavefront
اللو
قريبا
for
المحكمة
##فعيل
مها
اشياء
لحظه
ترامب
##قاد
مدرب
ألا
للتواصل
بالقر
المؤمنين
04
العراقية
نمو
لكرة
بنفسك
فكان
##رجو
##وجود
جنود
##ig
كثيرة
التعامل
##صلاح
منظمة
الاحد
المتواجد
سلس
سبق
##روق
##لقي
##ويتي
##انس
##ذاكر
##صبح
ومست
##خره
##برة
كيفية
بدأت
والموا
ويح
##باه
إطار
مجانية
##أت
ديوان
متابعينك
198
البار
خاط
تبادل
تشكيل
سكان
##لقه
طائ
بحب
مرح
صلوا
الفساد
الاور
الجسم
##صا
عادي
زايد
احلي
اتمني
دوله
النو
##ديكور
النجاح
الطاقة
تستخدم
الحقيقي
الالم
الشرقية
##اتم
شروط
راف
##وطن
وصلت
سبحانه
السابع
جيدا
ونت
##وجب
الساعه
بالصور
##طط
##عوا
يوميا
تدخل
وهناك
كبيرا
قيمة
03
بيد
القرن
الاقتصادي
ويمكن
تعا
##طلع
تشرين
##عامل
بريط
شفت
مترجم
بالخير
##ؤل
الحقوق
ويقول
##خم
أز
المشاهد
تعتبر
العب
##ثق
##لاند
تصوير
حبك
##وايات
أغسطس
نهايه
زمان
البخاري
صفحة
32
##طيب
الصوتيات
عثمان
بعم
جديده
فلما
سوء
##منى
الصبر
تسديد
ثنا
رش
##للوا
##im
##فذ
##ذيب
بدء
##قلة
التعليمية
جاز
##عن
السبب
سوره
تلا
##ia
الجنوبية
##ياز
وكيف
مساعدة
يجوز
##اجر
زاد
النهار
الطائ
##ائمة
ذهب
##فرق
تتح
قضايا
الالعاب
الإن
##صلة
بعدها
##62
##شطة
الدينية
##سباني
سنويا
المجال
تحرير
مرو
ويد
تبي
الوس
المجموعة
##عث
والمست
حاول
##راتيجية
الذه
وحدة
لديه
الميز
##قتك
##سبق
حسابات
بالغ
احس
النقل
الرياضيات
الأوسط
تحديد
نار
بض
واي
##حاء
بحر
حلوه
منصور
نبي
بحسب
##لوس
الدورة
يحمل
ليله
##منة
مواطن
ايفون
##عمار
سيف
##قس
اللوا
مثلا
##وارع
##سطة
الرؤ
المسجد
المتواجدون
النز
كده
##وسع
اثر
عبدالرحمن
##براء
الإلكترونية
قلبه
حف
الحساب
##لوي
عهد
الجد
السادس
##اخذ
الجب
الشمالية
##وفق
البش
الجزء
عناصر
##lam
##65
سعاده
بدلا
ياسر
اجر
سوى
##فسهم
تملك
منظ
النظ
سياسة
شريك
فاز
واقع
شبه
التعب
طلاب
ستي
##ربت
يبدو
الوجه
دعا
شرف
احساس
العا
تعلن
##فرد
##ثال
الطعام
السابقة
امل
بعيدا
احنا
##تحان
تجاوز
الإسرائيلي
فيهم
##فاوضات
النعم
إحدى
قصر
المؤسسات
أهمية
##الجة
وأع
الابت
حماية
الصاد
اليد
##نها
باستخدام
اليمني
خز
ارزق
cost
أخذ
نوم
##rip
اخذ
ألعاب
فين
ذي
غرف
الذهب
##كرر
##ائيه
##خيص
أبريل
##ضات
يرد
##جهزه
المسلس
الدراسات
##وافق
الأستاذ
##زوج
حبيبي
##رص
هند
شخصا
الملت
##ئك
يمت
شاب
##وعا
##شرق
الروسي
##طل
الاولي
##نيين
##رضا
هلال
##راوي
يار
مهرجان
وبعض
هون
المرا
يظهر
الاسلاميه
نقاط
السلع
علاقات
##خيل
الافلام
مطبخ
بالتوفيق
##صير
الطف
السؤال
الكرة
الأوروبي
##طاع
إنما
##درية
المادة
##ربين
الثورة
الظروف
سياسية
يفت
##خه
##ng
##ائها
لعبة
##جران
الامل
##نوب
الامور
الشرعية
الاشتراكات
واضاف
##برنا
حياته
التجارة
ومح
الظالم
يقولون
تغريد
تنس
فرصة
الرق
##ضل
الأميركية
##37
بتع
المدارس
سأ
ستكون
فص
اكتب
##جح
##ئيسي
الخي
الأمور
الوزارة
##ائن
فور
تشت
##ab
السعر
حوالي
موض
الحين
التك
2019
##17
سمعت
شم
##ضرورة
##صات
تسا
فانت
مملكة
نسب
##ائة
زع
##ظيفة
كره
حماس
وإنما
التعريف
بالمن
##ايل
تمن
العقل
##وماكس
سيارة
أصبح
جنا
مهمة
الصالح
شركه
المتوسط
ثالث
دراسة
الزي
##لسي
السياسة
للحصول
بذكر
احترام
نشاط
الاربعاء
يوتي
المصر
البرلمان
remov
مكه
مقالات
##ماس
قائلا
عاص
##حته
القضية
##بكات
##صدار
##ظلم
تخت
موق
رسميا
##برت
حادث
فري
شؤون
##يادات
الجمهور
الاسرائيلي
وذ
التركي
سري
الرأي
##قتصادية
تعليق
رابط
أنهم
إف
##ارى
فرص
مشاريع
جمهورية
طرق
نجم
##روت
سات
##روه
السكري
##ورى
##صدقاء
شكر
وأشار
الحل
القول
مرحلة
##فيديو
العصر
يرج
باع
وبا
الكر
التعا
الأق
يكتب
سناب
##ياجات
باعت
للز
36
الكبرى
##ياط
يكفي
المدرسة
وتف
##اربة
لند
##انع
وجميع
##زاز
وأخ
الثانوية
يلا
يوتيوب
الرسمية
البق
بمح
المنورة
هما
##est
ترب
والسيا
##قديم
قنا
##خفض
##فرج
عا
خش
2008
##بهة
##وادث
ناف
اعلانات
##ليزي
تنسي
الضغط
سعاد
والات
فلن
القاعد
شأن
##قاذ
##ائك
بتاريخ
فضلا
حقيقه
البشرية
حقق
التحرير
وبد
الفرد
##قيب
باي
عسكري
زيت
طفل
ثقاف
##راءه
والسلام
باس
لفت
الباح
##مالك
يحصل
يصبح
##نيسة
التون
ادم
الاستغفار
##كب
الأخير
وجل
##35
بعده
##طلاع
##ew
يبحث
المنتجات
اعلان
##ونات
سال
##ظي
##وست
العامه
رمز
فكر
##قرير
لغة
##قلي
منتخب
الجزائري
47
بحيث
##درويد
كاملة
In
ولاية
قادر
المقبلة
##ضيف
علما
تناول
##وتك
السير
يمر
عمي
الطائف
##فون
مسلسلات
ظلم
ملايين
هز
أعلنت
مير
##راحل
يأتي
##لالة
أقل
##قلت
وترك
اقل
امه
الجري
##ارنة
AM
##خال
مسؤول
##ماكن
مصطفى
للطلب
الغرب
الحكومية
##غو
##غار
ذه
راحه
حافظ
##فادة
الموسي
والمنا
المتميزة
يملك
##يخ
السينما
##حقق
##ناول
توفي
بعضهم
نحب
الصحيح
دير
حكوم
##يسى
الاتصالات
القوى
ميسي
يدعو
خادم
مجد
تمكن
الني
##اهره
البلا
##ياك
شت
جيد
عارف
##طوير
اصدق
المركزي
ولما
منكم
ماد
الاط
الساح
واضح
صباحكم
خمسة
##دخل
الزمان
باريس
الترب
منح
الخض
الدراسة
عال
اللغات
##نيت
السفير
العز
##جال
التخص
كيلو
##عددة
##طيط
##ورها
مشكلة
##وهم
يمثل
الصمت
طويلة
##ياتي
ورش
##كالة
تسلي
الحض
الحمل
##ئت
هاش
لعام
##ستاني
بواسطة
##للع
البنت
الفوتوشوب
الأج
المحافظ
##رافق
آلاف
##طاليا
33
يؤدي
##اوي
الصحفي
المشاعر
##يء
بغير
##واتف
شار
##ir
رأي
is
##بياء
عزيز
##ذل
والعالم
أوروبا
اليهود
pro
##حيان
##كانية
##شرها
الزواج
تحاول
الحديثة
بلغت
حنا
ضبط
الاهتمام
##اضر
اللواء
الإدارية
مجه
محطة
منتجات
تصريح
المتن
مدينه
ينبغي
##فد
شارع
الدا
علاقة
##25
الأو
##جهات
##عها
لغير
وأوضح
##راقبة
تعب
العج
لدعم
##طى
المؤسسة
كبار
التابعة
يشت
تشوف
##ويش
بمناسبة
لكنها
صغيرة
انج
واجعل
بدي
الجاري
##واي
##هيون
##ضعف
قصة
##عتبر
##بايل
أبناء
اليون
محاولة
197
التاس
##تو
الكلمات
##زان
اللع
الأمنية
تفا
تركي
الرشا
العدد
##وضاع
محام
نجد
والتن
تقييم
##باع
##خصوص
الخلق
يتح
مؤكدا
##وفا
الأيام
المشاكل
إح
تأثير
العدل
حملة
يومين
ويف
ابد
يؤكد
##علام
##AR
المغربي
##ox
اثناء
تظهر
##قدام
##og
ليف
ولق
مقال
النوع
والاع
رائع
بكم
##صرف
استمرار
دعوه
البنات
الأجهزة
حاله
الوتر
صدور
34
##سمه
##ضى
الفع
اسباب
##يمات
وصول
صدري
رسائل
وعدد
##بيا
الصغير
محل
الجدد
فارس
اهداف
عون
##حاديث
##خلص
اهتمام
فصل
الظن
مواجهة
وعلاج
وشروحات
##عتها
حكا
##حمة
استغفرك
##ندا
##عان
For
يون
حلول
##لوان
المعارضة
اكس
توفير
شقق
##اشق
أى
جماهير
همس
الشيطان
لندن
فندق
##ظاهر
تعبر
سان
##صفح
وبالتالي
القانونية
##لقا
##ظبي
تعلي
مكة
المشاهدات
القيم
##16
سيدنا
المدن
جورج
شهادة
ادارة
ضحك
الليله
75
##اشد
اشخاص
ورو
##قيقية
D8
اشهر
##مادي
##هره
##زيارة
موجود
نن
تقريبا
نجران
##لاص
يستخدم
إنها
البريد
المعا
##ارين
##مره
الصدر
##جية
##ارسة
افتتاح
كلماته
##ديده
الجهات
##غراف
ورئيس
تعال
##انيات
زائر
والاس
المحافظة
##وزارة
مجلة
##واجدين
صلاة
الأدب
وجع
##ثه
غرفة
اكون
جون
ولع
مراج
جبل
كوريا
##شاب
والآ
##تكم
ربيع
الاعمال
تقارير
##ابلة
أر
ملعب
استمر
لض
وزنه
قوي
شوق
هايدي
##اتل
ضي
دنيا
##نوان
يلعب
فم
##اهده
##سع
نجوم
##ثيل
البداية
يحفظ
ذنوب
اذكار
العص
ففي
للتسجيل
##سكر
##وزي
##لقت
عود
قيادة
##اغ
المطبخ
المحم
تحس
الصوره
St
##ada
##ثناء
##ليد
يساعد
##ثرات
زيد
أست
اختي
يموت
المئة
خلالها
##24
عرشه
طهران
للتح
70
500
رغبت
المقاومة
ناد
يفهم
استعداد
Trip
80
غا
وأما
##نته
درهم
بلو
##كندرية
بوك
برس
حبا
ينتظر
طريقه
ارب
التحقيق
لست
المسابقات
يجع
القناة
كفا
##op
جلب
##ish
والي
##شين
زم
زراعة
فش
##كاديم
##Ad
ويج
##نيك
علو
لأنها
##درس
طرح
الشحن
روحي
##افا
وتر
اسلامي
حط
##oc
يحيى
انتخابات
التخصصي
الأميركي
تور
##ثور
وتب
فتره
فعاليات
البناء
##لاين
##وسطة
##قرأ
##داب
حام
توفر
المها
شخصية
البيئة
يجد
يخرج
##ساط
وجاء
خطة
##visor
عمره
##ديان
نقول
الازرق
اضافة
##14
سيدي
توزيع
اجن
الرمض
وجهة
##قصى
يتحدث
اولي
##نتي
بوس
تصريحات
تعزيز
وتست
حوار
الفائ
ندعو
##عدام
عقارات
البرا
وكيل
##ينية
مأ
اراد
والمؤ
##لسان
المهندس
اسبوع
الطبيعي
بلدية
##جرد
ذنب
##زيا
##اصل
##38
لحد
إطلاق
حلب
##Advisor
مبت
##شى
TripAdvisor
التالية
انما
متر
المبلغ
برشلونه
توقف
Ah
##ناف
##سى
الانجليزية
##أنه
القديم
##اتنا
فاط
قدي
الرحيم
ابتسم
محفو
بينهما
##لعة
صوتك
المعرفة
يبي
تواصل
يشعر
جابر
##حط
مجانيا
الأفلام
اريد
والض
مياه
الحقيقة
##لقات
سوا
السيارة
أرد
المسرح
غلط
صناعة
الرغم
المناسب
الأمة
##وقرا
الطيران
بتن
انتم
بينها
بام
##خفاض
القديمة
الكهرباء
معاك
ذكره
داي
حزن
معين
والمنت
قروض
##واريخ
##تان
أمراض
عطر
صع
وأنا
يزال
##حايا
##جاح
الزرا
##اتكم
ليلة
الكام
الخاصه
##90
المتحدث
جس
##تيال
البيع
الزعيم
بالمع
##ضمام
ياتي
المسلحة
فهذا
##فرض
يبلغ
اغاني
فرع
الطبيعية
##ينيا
الهاتف
37
ملاح
البيانات
الانتخ
المذك
منزل
##سمة
لاج
ضح
الشارع
العقد
المشارك
اعضاء
ساحة
اداره
البريطانية
سلسلة
ضغط
##لقى
أهداف
##الدي
جماعة
##وقت
السنوات
فاج
اعتلال
المشترك
خطر
سابق
غريب
ضيف
العنف
##خير
##ut
##لتك
##انيين
أعلى
حرام
مستشفي
الأردن
الاستثمار
اختبار
مؤخرا
اقوي
متابعة
##يدي
لتصحيح
##34
مول
##▬▬
سبع
القدر
المباد
##ليس
وأش
للمس
##راسة
##رهابية
تاب
حينما
سفر
الثقافية
ولكنه
##قنا
بعنوان
##ماك
لمش
##روة
الإرهاب
لموا
اعط
050
للرتويت
بوح
##ul
لابد
48
جعفر
الفلسطينيين
حمل
مرور
##خدمة
الجوية
الاشخاص
##حاد
##ليت
##تام
الكبيرة
العش
ومنها
للناس
الأه
الأكثر
هات
##قطاع
ياع
الدرج
الخامسة
##سلام
التنفيذ
##قدير
ورج
طويل
ومداد
يقدر
الغاز
التركية
يحاول
لبعض
القض
النسب
العض
الإش
##ER
##ماعات
##بور
removal
مهند
استشهاد
سورة
ابناء
##وريت
دقيقة
and
العروض
فهل
الصحف
المسؤولية
أور
##ويم
##شيش
##الحة
الشكر
##معه
##يطالي
وعندما
المتابعه
تشعر
##ust
شعار
الشعور
الفيلم
العالي
ورس
##صلي
##ئل
الخطاب
##وغان
خا
مشاعر
تحتوي
الصعب
##راها
بحضور
##صفات
هش
عجز
ولات
النقد
##كاديمية
38
##فعال
الباحث
أفلام
##اجي
عيش
يدي
##ركان
جر
تجربة
##اشة
ترم
المشاريع
جرح
الإف
##بادي
أربعة
فينا
غرد
الدستور
النهائي
تقع
أفريقيا
##وظ
##ريقي
وشك
الأبيض
إنشاء
##ارها
حن
الياس
اجراء
##قوب
##حام
المكتب
أهلا
عوض
الكتر
الاسم
طي
المدنية
العناية
##اضرات
حج
الظالمين
##ظفين
##بحاث
اند
المالكي
خطا
##68
##حاق
عيونك
عبارة
##جهيز
الترم
ألمانيا
التدريب
##لديكور
شمس
##كاديمي
قري
والتص
##قها
##تاب
مسرح
رؤية
العملات
بطريقة
المتعلقة
نمر
معرفة
##فير
##وكي
صرف
وبح
##لامات
الفقه
توجد
واغ
##خرة
مناز
##شوف
يمنع
النمو
رون
اليها
ساح
##كمال
عندنا
##باحث
النتائج
المكتبة
المصرى
العدو
##يدر
كبيره
خلاف
كوك
##ينات
الاغاني
قوم
العودة
##لوه
حك
سقوط
نبض
مسب
بريطانيا
الثقافي
الأزمة
لمح
##ers
الرضا
##ment
##ontada
أقسام
اتصل
السلف
واه
ظهور
44
الحوثي
ترغب
يشرف
أحب
التقرير
وهل
بالمدينة
صنع
تخرج
##حتك
ليا
مرك
الأعلى
رام
نظرا
##فقة
البوا
يجمع
وفى
مطعم
##ظاه
الأسد
الهندسة
##ميت
أساس
التدري
اعتبار
الصيف
##طول
يحبك
##lamontada
الصغيرة
##ايق
وزاره
##خط
ذو
الاميركي
عبيد
ابتد
2007
الدراسي
##ورز
الديمقراطية
الرشايده
لتحقيق
ولذ
90
السلطان
الجنس
الجزيرة
تعز
اخري
المساعد
الكشف
عيوني
##لاني
والتج
أطلق
##رحل
سياسي
وليد
مدة
##جيع
##وضة
المالي
الدار
اصبحت
ماز
##روات
خلاص
Al
البنوك
##هرباء
##يرانية
الغير
##ديدا
يقع
التفا
ناح
محكمة
امريكا
تكت
جهود
اثاث
عامل
اري
تقدر
##تهي
المنظمة
فيت
ناق
##لندا
فكرة
حقيقة
والخدمات
##سبانيا
للام
آدم
التالي
مسؤولية
ترتيب
##قوا
والعم
ثابت
الصحافة
Ahlamontada
الفور
تصاميم
احلام
##ارم
##ناها
pr
الصيد
##فهوم
الأجنبية
القضايا
الحيوانات
عرفت
اشهد
##خد
##لبة
القاضي
الفكر
الرجاء
صحي
ابطال
القيادة
##ئر
##ced
سابقا
الطالب
تحقق
تساعد
ريف
الادارة
التراث
##وزير
سمو
للعين
اخوان
ذوي
##ليشيات
التعليقات
المتهم
القيوم
طن
وأس
##وائز
بالدم
معني
السك
السيسي
اليابان
##سوارات
المجاني
##رون
أسباب
الجنة
##ess
حياتنا
امنوا
##طنبول
##لوق
يرجع
الكويتي
الشؤون
cataracts
##جمالي
ربه
الشيء
بوابة
المباراه
الشهداء
التنظيم
منش
##قاعد
عصر
تموت
##رياء
##وذ
راشد
الوحدة
##حبة
مسئ
وملائ
الارتباط
طبيب
سهل
##وريه
الاسد
برئاسة
قصه
المنظ
الاخره
الروسية
مريض
رواية
العلاقة
بطل
دولي
شحن
الإعلان
المسؤولين
##هاده
كوم
باله
##يادي
الحص
بكره
التولي
##لاع
والمرئيات
التفكير
الجامعات
ضم
##قيه
وسهلا
ضيق
##eb
الشاب
لافت
لقي
##ابا
تخفي
ملام
فد
العيد
الخصوص
##أل
الديكور
كتير
##ؤه
هب
##يرو
النشر
بأي
ثبت
إنتاج
المدرب
للمست
قليلا
الموقف
##ولف
القبض
بالي
مناق
##un
##جابة
##67
أبا
التغيير
##يص
معنى
https
وجهك
الضع
سيتي
تل
أحدث
الاق
دوما
الذنوب
يرى
الاختبارات
ظروف
يعلن
وجهه
غي
##حمتك
الامم
الشريفين
صندوق
وعلاجها
فكره
##دار
الداخلي
##ؤاد
إعلان
##الع
##صرة
تجع
الاميركية
الثانى
جازان
##مون
##13
وخص
الاقسام
ضرب
بمس
وبي
##ئيا
الصناعية
ابواب
الحنين
##وعي
الخلف
مطر
أخر
سحب
تبر
ملابس
الإجت
الفا
##ناد
ناش
تصرف
المرح
لمعا
##للون
ترد
النشاط
وموا
لحقوق
تبت
الوسيط
تاج
للتن
الداع
الآخرين
النبوي
زال
خلفيات
التصويت
بمدينة
مصري
الالت
حالات
##خراج
##كنت
طوال
##كوين
فاس
كتابه
##28
بقدر
جنه
الغام
##وائل
تقبل
أبرز
##ريقية
##راقب
لانها
##ah
تتعلق
اقرب
##وايا
زر
تستحق
##هلك
بشار
حروف
انتهاء
##وتا
##كومي
نصي
خروج
ورق
وقيل
بيس
التوفيق
الرئيسي
المعروف
الأمين
يسر
##كاوى
الأسعار
الراج
مشبات
التجمع
مجالات
##هيل
البطولة
##بان
فضل
تقنية
البرت
يعطي
تسليما
قراءة
يجري
الإسرائيلية
المأ
مواقف
لاحد
ذكرت
الأهلي
فنان
والتس
العمليات
بارك
طارق
هاد
درجه
البعد
قرا
البلدين
##ساوي
خواطر
شوي
##زون
ثانية
##للاج
والتق
قواعد
عذ
##قدار
وادي
وتخ
تواجه
إجراء
اولا
زياد
##فف
الوث
القوة
الأساسية
##ارئ
##وحيد
بالاست
عاف
النبوية
اللاج
النقاش
أصل
بالاس
نريد
قرارات
نايف
تردد
الممت
تقت
يصلون
##مائة
حلا
بفضل
الجلس
علش
مقاطع
##يزم
بيزو
##ماغ
المباشر
لقب
أوب
مستقبل
الظهر
القيامه
##فسار
سيع
المقت
تدريب
مصط
ماع
منتصف
صمت
مسؤولي
وها
اثنين
يطلب
الأرد
##ديت
##داع
وابن
اصبحنا
حسبي
ذاك
يعط
احدا
المحد
The
القبر
##نترنت
للذ
قدير
##ويورك
ليل
جيت
##لوع
الهجوم
صبا
جاءت
نهائي
إسماعيل
بلاده
الدمعية
قوية
عائلة
التكنولوجيا
يجي
وطلب
خري
سنين
طبيعي
طبعا
علماء
تحديث
القادمة
امرأة
مبد
توجه
وجدت
اجمع
حاجة
##هدد
فكيف
##نز
للعام
الأدبية
النجوم
سقط
هى
ياح
##دمير
شج
جرائم
لمت
الإنسانية
2006
حجر
##ist
للموا
فروض
سنت
##ؤكد
لبي
ارس
الحالية
##رابلس
رزق
الاردن
##قلب
الانف
الصينية
والعمل
تضم
##جو
تحويل
شروحات
عددا
امري
الهواء
وبم
55
##ويض
بعدم
بيننا
أني
##ساك
##45
المشكلة
##نافس
##ديلات
##املات
بصورة
ممث
مذكر
##تب
##عتقد
عودة
##ine
نسخة
الفلا
فاست
يرحم
إقامة
يسمع
سكن
مل
حقا
##فتاء
الملف
جدة
طيور
فانز
للعمل
العرش
الأوروبية
وأنه
باللغ
حرم
##امية
اكتر
##هلاوي
اتخاذ
أستر
تبحث
هجوم
الالكترونية
عالمي
سيما
##عتك
وارحم
ونس
##ure
##تيح
##لزم
عمله
##لومه
##اهير
الصوم
وتطوير
مدار
عيسى
الملعب
ومد
ومؤ
##عمه
الحالة
تفت
ومحمد
39
مزيد
فالم
الخيمة
##لحه
حت
##وفه
الافضل
هدا
##ubai
##راما
الراجحي
مصالح
ذاته
المدينه
دائرة
غالبا
اصلا
قرر
عار
الجماهير
وارت
مدا
لديها
وسلموا
التوليفات
##فيذي
##ob
السوريين
صدقه
الاستقلال
أراد
##يريا
##ثنين
أصبحت
اخلاق
للمش
##رجي
عشرات
##عمة
موسم
يعتقد
وكم
السكر
2000
##ئاس
الإنجليزية
جيب
حقي
المليون
المنافس
واحدا
يكت
كريست
##غوط
##ولهم
زياده
بالقرعه
المطلوب
##فز
##عداء
كانون
يسمح
كلهم
##كيك
والأس
يلي
##ديوهات
الحار
ياخذ
وربما
وفد
تطبيقات
##سبوك
القائمة
وفاه
تسي
يخص
الحزم
ساهم
الجودة
ومج
متنوعة
تزيد
##عيون
ظن
لدخول
بولي
المولد
استقبال
فقه
##اجة
تفض
الشروط
لولا
مدن
الانس
اللون
هر
الذكري
تهم
التطبيق
##ائيات
الفيز
##دو
واليوم
التصوير
الخلاف
ترى
##روري
البديل
الاقت
##ثرة
al
##ساهم
##لبك
مراكز
##مئن
وزراء
##شارات
صنعاء
لبن
اليس
والاجت
الصديق
##رأ
دخلت
كور
علشان
التصاميم
دايم
اللازمة
الدقيقة
دفاع
##وندي
##شتاق
حضر
واحة
العقيد
##ind
##ma
##يانه
مسي
اشتقت
الحرية
مسألة
بقلم
والاخ
oper
##غانستان
المرج
##يجار
##طلبات
لعل
اتصال
##يرك
باعتبار
الاستاذ
السمو
بعضها
##الها
##طفل
دعوة
##وامل
غد
خطوات
##شع
تميز
شام
##جابه
وخاصة
أداء
الزمالك
##متها
شخصيات
42
##زاء
شاهدين
المرش
##واري
##رفية
وطني
نيس
المسيح
##وائية
خفي
##عوه
D9
جلد
ولأ
##ادثات
تكر
أولى
الفقر
الجنا
##اشقجي
أمريكا
نساء
##عوام
##الفة
##ook
operation
يعقوب
أطفال
##lish
جهد
##اصي
نصيب
مالية
##بى
##جري
ليزر
##جماتيزم
##عده
دموع
الاستجماتيزم
لديهم
أمين
غيرها
تكشف
عزي
ثقافة
يرجى
الأسباب
ماهي
مدارس
##افات
درجات
الطبخ
تشغيل
لذ
Eng
الحديد
وأف
زوجته
قاعدة
##ومين
الاخرى
##وجع
زعيم
والرس
الآية
##حتها
##غت
حسنه
المغربية
أننا
احدهم
##طيل
مجالس
كمال
##بطال
طبية
فاغفر
##جيب
الضوء
طبر
الكاملة
تنز
وأي
wh
جراء
الثلاثة
لانك
تخص
##طره
مقارنة
التوا
ندعوك
ميد
بيوت
عدن
##39
##ابك
داود
##ue
تقطع
يان
هجر
الثانوي
فرحه
ستة
الاك
##للذ
بانت
الدعوة
الوظائف
##رتون
##حاول
المنتدي
الموجودة
تداول
##زالة
##ائزه
جسم
الخواطر
##لغاء
الطقس
تزال
خاصه
الحادث
يشبه
وحب
توص
##شستر
نسالك
بوش
لاحظ
##برنامج
وأم
##ودع
عسير
السيرة
للان
التقلي
شاف
##اقه
##ورهم
السكن
بصف
يومي
الحربي
صفر
##زت
الغلا
بالفعل
السحر
كرام
##ضاع
صلاحية
جيدة
الخروج
المصريين
الحماية
##64
the
الضرائب
البريطاني
يشارك
المريض
المعلم
مسابقات
الردود
حيا
##كمه
بخصوص
##روبات
الداخل
تاخذ
بالتعاون
##ولورز
مونت
عسي
الطريقة
##رهابيين
##ياع
بتس
##69
سيب
الحفاظ
اللاجئين
أزمة
اتجاه
بالمشاركة
الامه
سمير
قس
العاملين
ره
تشي
دورات
##ائى
بالفيديو
الملفات
تبين
##لطيف
الاو
تعني
كفار
متميز
الكه
##راسات
##قار
يشكل
اللذ
العدوان
واسعة
ايدي
الأشخاص
الصهيون
سانت
الأحمر
##فاس
المبارك
##تيل
تراجع
السلاح
التجاري
الممكن
فانه
غس
##بيعات
باخ
ناج
ادري
والبرامج
أثر
كرم
وآله
جنب
الدبلوما
##خرين
النتي
وحسن
مسابقه
الخوف
المهندسين
لتس
تث
##عدة
##رال
##غني
العقوبات
والمجتمع
مور
ابتسام
زرع
##od
الجي
##قاب
الكيم
الصبح
فرصه
ثمن
فرد
##هوه
المشتركة
لون
قررت
المساء
الزيت
حريق
##خاب
قاعة
المنشورة
##قرام
تبدأ
مقب
أصدر
##ثمارات
تؤكد
##ack
متع
##ON
رايت
أسماء
مشعل
##فيش
dubai
المناسبة
##سته
سحر
اخي
نض
##وصل
جاك
هار
توجيه
هموم
شرطة
الإخوان
##بيح
طه
##حني
سكر
عسكرية
اطلاق
##طون
بالقرب
رجلا
##غاني
مفاج
خاشقجي
وملائكته
##رتك
لمعاينة
##شيدي
يحقق
##ديقة
##الون
ماني
بيني
غني
راتب
##فيات
جلسة
الغربي
ضا
السحب
دينا
الصحه
بول
وفيه
يطالب
مجمع
السويس
جبر
تصدر
دقيقه
النبات
##ئون
وفاة
سرا
##ترنت
الريال
بحمد
##علان
##ووو
ولذلك
##خين
##قلين
المجالات
مسجد
##يسر
بدل
لأي
القاعدة
مصلحة
لاخ
الاثاث
ذوق
##وند
##قن
رعاية
الوفاء
يجيب
يرفع
##ذير
اليومية
التشغيل
وبه
بالان
قدام
للغاية
ماج
مباد
2005
##عدد
الدمام
معينة
يدل
خليل
إج
المواقف
المصادر
الاخير
الاجنبية
وتابع
الافت
##ربعين
##هادات
الغذائية
متح
##تيات
##كتاب
تكلم
وسب
لأحد
اسماء
##48
تسبب
الاجهزة
التعبير
##جبات
متابعين
قيد
القصاص
اختبارات
##رتها
نعرف
مشترك
الحشد
قيمه
والاد
##ودية
الشوط
غاب
يطلق
##فيت
الطيور
حذ
الخمس
الالكتروني
السياحية
##ap
##27
مدري
##ثاث
احتف
رائعة
للوصول
##لطة
300
تنتهي
المنزلية
##انوني
احتجاج
##افل
##فيل
المسلسلات
عشق
وبك
سلاح
بجميع
المجموع
بمر
كندا
وكذا
بوجود
بالام
يقبل
##ئذ
##فيان
بزيارة
أفراد
مستوي
انتهت
الأحداث
القصيم
##لقاء
##ابيع
يحتوي
##لسفة
##31
##سيك
قوانين
فخر
##جمة
الده
الجولة
##ائهم
بأنها
الملح
المميز
غالي
رأى
طبرجل
حدوث
بجد
والته
##نسيق
وقعت
الحمام
سوداني
فاض
##شيخ
on
الحاكم
هشام
المعارض
كتبت
المميزة
والتع
##tr
##سيان
الغياب
غض
##لفا
الطبيب
كرب
مقطع
##نص
صي
يدفع
الجميله
##ياته
نكون
##ستفيد
الفضائية
ماله
##ساتين
تركيب
وسوف
شرا
لمس
القوانين
Forum
##قيقات
إعداد
تغريده
##هيان
جريدة
زواج
فائ
الكري
##فهم
الأقل
الرسالة
الاعلامي
شغ
عل
##ادن
تشكل
شديد
برم
مستقب
أدى
فشل
قرض
وعبد
##رور
الربيع
مبلغ
##49
النجم
المحبه
##ابعين
رز
خطوة
افريقيا
تمويل
امور
متعددة
الوكيل
ضوء
##طم
غان
الوزن
يضع
البرم
اكد
نيويورك
والروايات
##جمع
المسؤول
المستشار
تلت
الحشرات
بالاع
موال
##كك
منس
العي
##one
##طيه
لعدم
المناسبات
##دب
اذكر
فليس
##افعي
العفو
وعلم
##فاعل
بالكامل
التنفيذي
السعيد
##حسن
##قدمة
مفتوح
لشخص
زوجها
ارشيف
جسد
##منت
طر
المائة
وداع
عوا
الجزائرية
الفعل
لصالح
##29
##ريج
قدمت
ابعد
بنفسه
بسرعة
43
هادي
تحول
ملوك
##ce
##ياهو
الاخيرة
تحسين
الامتحانات
بلدة
وحدك
البال
الاحداث
القومي
يتبع
##th
##ذاك
##عيين
رونالد
سامي
هلا
اللقب
قصف
مظلات
##قليمية
غرام
لدر
##21
التلفزيون
الاعتداء
بتسجيل
يقتل
تاني
تجاهله
يسوي
لمر
الشري
الرشيدي
الهواتف
##اهو
الحقيقه
يتكلم
كسر
##يرون
تشهد
الحظ
فاي
حاس
خطاب
ومص
نيوز
النووي
الواق
درب
فاش
شهرين
تلقي
##ech
حذف
جائزة
نظم
العونه
برب
بطريقه
توكيل
##قاق
المرور
##راث
##ليني
##فعات
طرابلس
صرت
تقل
قاب
##رادة
الجنسية
الإنتاج
والمد
سفير
ينفع
تسمح
مريم
عزل
لتش
اوي
الجهود
نقدم
الحاجة
اوب
يغفر
يده
انظر
ابداع
امتحانات
##أكد
قاله
قبيله
نغ
ونعم
الدكت
أربع
واجب
الحاسب
##نق
هذ
بانه
الابتدائية
تسلم
المقرر
النم
انني
خد
المعم
كاب
الهد
شهداء
التحكم
تجري
الإيراني
##اهي
فاح
حفر
قانونية
الايران
المفاوضات
الجماعة
السجن
جنون
للث
مشكله
معروف
##وجل
بمست
العري
ترج
يرغب
طرد
تبلغ
##اريكات
##افرين
استخدم
الحرة
جودة
النيابة
تولي
##صحاب
##يطالية
عليا
يعاني
يشرفنا
ميش
جذ
آن
والده
فني
حصلت
الديني
##جزاء
ارقام
غفر
المهمة
الحضور
تحضير
##جرين
الإعلانات
##ساطة
##غلاق
مكون
الحالات
فرا
الرمضانية
تفتح
195
فجر
كول
##لبس
الغد
فوائد
ثورة
فسي
ماجد
اقتصاد
القوم
العافيه
أحكام
طمو
المفروض
الاعتراف
انجاز
العذ
أبوظبي
جوا
راض
##لاقي
امك
احتمال
ودعم
معاي
##حلة
##بن
برحمتك
##وفة
مضم
##همية
يترك
ديم
اهلا
صفوف
اداء
##للعب
هوا
##دل
ولكنها
ويسر
اللعب
##فسي
مجموعه
##يلات
التقدم
العمومية
##لبا
برشلونة
وتغ
تقم
##فيا
مشاع
##ناعة
الموافق
##زيلي
والرياض
حولك
للض
القي
قمة
الكهربائية
توب
نقوم
عادة
##ustom
##زايد
عراق
تفقد
البحرية
##عدل
القدرة
البقاء
يقف
كأ
الاحلام
49
لقط
##جلة
##اركه
##rab
English
نهر
قبر
عامر
150
##يتد
##رافيكس
توظيف
التاريخية
##47
اعتبر
الموبايل
قلوبهم
عديدة
المركزية
التسوق
ساعد
مؤسسات
##للسان
التونسي
اللسان
ويتم
المتخصصة
يطلع
ذكرى
بلي
الموارد
##gle
##ائط
##فوق
##شتراك
##نتك
##اريو
الما
##فعة
الزه
وطنية
وهنا
أحداث
custom
##خبار
وكن
بمش
التيار
الاسعار
اللبنانيين
##ستقرام
بالتح
مرحبا
البالغ
جدول
الملتقى
تذ
##ونيا
أين
باش
بمت
الألمانية
طيبه
اضغط
والدي
المهدي
##صره
مبر
للمتواجدين
العباد
ينس
العيش
الشرف
الكامل
##بيين
درس
اعلام
يفتح
كشفت
ترجع
##نيع
والبح
القائد
اسيا
وابت
##قون
طلعت
المرة
##الدين
يري
مطلوب
منهما
للانت
ينظر
##36
انتظار
للمن
غيابك
الفئة
بطاقة
cent
المتط
الشكاوي
اتخذ
صر
ميك
الاكثر
صارت
بحاجه
##يعه
القصة
انتشار
زائرنا
تام
ووا
##مسك
الاوسط
تأتي
ربع
009
أعلم
##أتي
##فسنا
الأراضي
الايرانيه
##ريال
مساحة
كاف
بولا
النيل
تشير
##اشات
الذك
وغيره
##راجات
مرتين
تنتظر
السوي
##درج
عزيزي
يبت
##كنه
كيم
الجيل
يشوف
##لوبة
الفضل
46
اجتماعية
العائلة
ديكورات
##فين
صبر
الكره
بدعم
مري
الاسرائيلية
جامعه
وجوه
الصراع
##ووك
ومنا
اطار
##ww
وقبل
مستحيل
بأسماء
##هج
الكي
واللو
الضحك
##AT
يضم
تعطي
واغفر
اهتم
##لذا
ممتاز
مرف
الفار
امراض
السرطان
يورو
الحرف
ترفع
الطلبات
آسيا
##ice
روى
إله
رياضة
شرط
الشريعة
مغرد
بكثير
##قيف
بصوت
العثور
##غرافيا
##لاعب
حسابك
العلي
الشك
المظ
بريد
يات
##بته
موظ
لمست
الصحيفة
عالمية
النهاية
كوب
خل
الهوي
تكتب
##اقات
رت
##رقية
روز
##reat
##همه
العاملة
##حها
يغير
المصاب
البرو
2004
لحم
##ركي
الإعلامي
##اطئ
خليفة
المسيحي
الراحل
جزيرة
قبيلة
حنين
مقدمة
التجميل
الثانيه
##يير
مطالب
آذار
ليكون
##box
يونس
##دريب
يكشف
##فور
معهد
وحلول
تستاهل
الشعوب
لائ
الوكالة
##كاة
أخبرنا
بالمئة
توق
##طئ
##ملكة
##oogle
توقيع
وحين
لغات
الشبك
##iv
العاج
وهكذا
قضاء
الملائ
وارزق
متخصص
عيب
فكل
##يتهم
الأمراض
علوش
القرارات
عكس
المتوقع
التب
##فضله
الحرام
السكان
وسم
##رتويت
يصير
اقسام
الروم
تنام
الملكية
##pl
تعيين
طويلا
والصحة
السيدة
مدي
##af
وانما
الانق
يبقى
##زية
فنحن
جديدا
عفش
أماكن
للمع
لسان
##بال
عندهم
ابتدائي
##دري
انيس
ماليزيا
العاص
اضافه
##ستير
##جهه
جميلا
صحفي
رفي
شري
نتم
مراجعة
##ort
المنه
إرسال
المنتج
الحاس
شهدت
##روسيا
##سيت
##امنة
يهتم
##فيني
تحبه
الموضوعات
نك
##قولة
##يروس
##صم
حفظه
مسابقة
الدروس
الاسرة
مجددا
58
احتاج
خلقك
الساحة
هديه
مشاركات
يلتزم
##آآ
الرمادي
ريم
أبدا
التض
##سامح
الصدا
##اءه
إني
الثقة
##بها
##tion
اساس
بالدخول
##ىء
ST
عمليه
وتقول
مقات
السبع
خوف
ياج
ياس
الدرجة
خسر
65
##قش
ليرة
الفضاء
ويكون
اوروبا
نكت
الجلد
العميد
تشمل
##فيس
الاي
57
حبه
##لاله
نسيم
آية
##az
قمه
الديموقرا
اتش
##راكة
العلامة
ردا
أنحاء
المخدرات
البلدية
##البة
يفعل
فانها
معالجة
لاعبين
##اريا
##رويج
بالضغط
##نال
الخس
##نتاج
##مكان
مطلع
الكلية
##200
تسمع
خب
##تيش
لطلب
تحصل
ألب
حديثه
رحلة
##عوض
السلم
011
الأكبر
ناحية
##سبانية
##وتو
الإجراءات
واضحة
##خصة
توفيق
سوري
##ثا
يشهد
##روفة
جمعه
روبية
تترك
ولت
##ولها
بالعمل
الفرج
آثار
البلدان
روي
انخفاض
##قاله
الكنيسة
نقابة
##شط
ماكس
الطبيعة
المطار
مانشستر
الأنا
##ثره
ثانيه
##زرع
##حوا
راق
كافية
غذ
عندها
##انين
وخصوصا
##خله
واعوذ
ابحث
الجلسة
##لوها
غز
باخت
أية
القاسم
منطقه
الغرفة
##بعد
داخلي
الوفد
السوداني
الابداع
تقف
نيسان
الحرم
##رائف
sp
اسلامية
##شرت
فنادق
الفنانين
تخصص
##عج
تطلع
##نائي
الموجود
اللعبة
نواف
قي
##حابه
الفيصل
الحدث
مناسبة
نو
الصادق
المري
##سيفرات
التشري
وشر
##فيز
توح
##لاط
##والى
##olog
النات
هج
##ud
##لادي
الأسواق
واصبح
الطرف
##ضن
##AM
##خا
مروان
##وارات
بوتين
نزل
العملاء
القنا
مفتاح
موسكو
59
أشخاص
##برني
يبدأ
صفحات
الظلم
صرح
اعتقد
لتكون
تدور
كتابة
وللم
مشار
##اتيح
ووضع
يولد
بسيط
منبر
نصائح
##جنبي
والاح
انتظر
##زز
ملخ
تربية
الزراعة
واحب
الشيعه
اخاف
##لزمات
رئاسة
المستشفى
##ابط
الحرارة
ورغم
قلبا
اجعلنا
روم
إيجاد
وتك
هواتف
ماك
الاوروبي
##ائلة
التعليق
##قاطع
##اوية
المباريات
تمام
##رط
السنين
##لوات
##ينو
##يائية
تضع
غضب
رونالدو
آخرين
خطوط
##غفره
##صيب
##دوز
استر
الجاه
نعيم
##ذان
معاذ
الذا
##ربول
##ies
الشيوخ
التغريده
اغنيه
لاني
لحظات
حري
##لاس
الجوف
عدا
الرواية
نفذ
تفعيل
شاعر
حكمه
##بتك
قوى
سطح
##لاته
الطلبة
والتى
##out
اسمع
##ؤها
المتح
##مييز
الضمان
الذكية
باكستان
الصال
ويق
جنودنا
كيوماكس
##حان
يعتمد
لعلاج
بعمل
##حار
##رجل
المستخدمين
##برع
##تيم
اثار
تطلب
الدفع
لنفسك
##نهي
إث
##يلول
##طرية
القحط
موضع
مستمر
جزاء
الفتح
الارد
##اريكاتير
www
فلسطيني
الغامدي
الصيني
القراءة
بسرعه
##كافحة
السريع
جوز
دولية
لاس
وأنت
##بطة
52
الشمري
الرؤية
تحم
دولا
راجح
علاقه
تيم
باد
##سابقات
ارواح
##صرهم
##رحات
دايما
لتع
##لحين
احبه
ويجب
##رافيك
سلامة
الحلم
لحظة
وليست
خيارات
غيري
ورضي
اوج
الابصار
ينتهي
وبن
لث
تطور
خام
ليع
الزوجية
الملابس
##ينغ
افتح
بيك
شرب
يثبت
مثله
ويه
واكد
كمبيوتر
معاه
لتأ
الادب
الادارية
شهور
##بض
للمح
أون
##شفيات
حبيبتي
السومه
وبت
لآ
يعرض
يرض
##لتين
صحيفه
سريع
##مح
استقبل
أبيه
باتجاه
الأموال
إضاف
الثامن
أموال
والثقاف
center
سبا
مسعود
اشد
##قليمي
غر
وأبو
خبراء
معلم
##vision
الخز
تقدير
##ابق
يواجه
##وزع
##لاغ
بالاض
رحمتك
شان
الصحراء
##وووو
ممثل
الخطوط
زيدان
البل
##قاشات
لصاحب
واجبات
ببعض
اغلب
الثقه
ثلث
##لاقات
مند
##لفه
متى
ساع
المبد
انشرها
تتحدث
جرى
ثلاثه
999
جزءا
للمرة
بلادنا
##ماعة
##شكل
##بلغ
الموس
الضر
يسلم
st
ورشة
يحم
الشخصيات
جل
بمث
##متك
تمني
الداخليه
اسود
عيادة
فرنك
متجر
##ترول
التدخل
مصير
منص
كأن
عاب
##ولان
##هار
الرزق
جوان
التخطيط
علمية
النكت
##يتين
##ئناف
اقرا
العتي
التراب
##AS
المانيا
##بعث
اور
عراقي
المجد
ميزات
القمة
##are
الانحراف
انتهى
إما
ونصف
مكاف
فضي
تجي
خيار
##ريبه
##يانو
##اليب
##فاه
250
الخطا
##رفت
نسيت
بتص
المرء
حرة
##هرات
ولس
الأر
بقوة
شب
##هولة
يقل
السويد
أبواب
قن
ليك
امني
الاخوان
41
اعادة
العدالة
##فاءة
الفات
##ثيق
ديكور
كوا
to
مراحل
جوعا
الوسطى
فقدان
الأسود
رده
ابنه
نعمل
تحالف
##لفظ
يونا
رائعه
الأطراف
الإثنين
بوكس
والاب
الاند
متخصصة
##شية
للشيخ
باللغة
##ith
##وضه
مئات
يريدون
اسطنبول
##مهوري
##ube
فلاشات
ملكه
تبكي
والعالمية
ورفع
البغ
يؤمن
بمنطقة
المثال
ايد
هيا
المقال
الطويل
بقا
يتغير
الجنيه
كات
##وفت
علامات
تسليم
وهى
فؤاد
##راط
##كييف
أقرب
تجارة
الحملة
بعين
تتحمل
##ستي
الماس
##23
متاب
يدرك
وضعت
عايز
النياب
إجراءات
##يفك
صدفه
##ream
##ونيس
اربع
طبع
الاقتراحات
مفهوم
حميد
##ناز
الشكل
ميديا
الحرس
اى
صدام
بشيء
مؤشر
الجديده
المفتوح
عيوب
الكبار
القائم
الإبداع
لتطوير
رئيسا
الجهاد
تصدق
##ظمه
##فارق
##اربه
والعلم
##فعله
56
وانتم
تفهم
تنمية
رصد
تراه
سد
نداء
بعدك
الاتجاه
الاحياء
امان
مارت
الشديد
##نجر
إلكتر
اصعب
واخر
انسداد
##هلاك
القحطاني
الجسد
##جارة
متك
والدعم
رسمي
الاكت
خطط
الشوارع
عبدالم
مناسب
أصحابها
امراه
كرسي
التوص
الشافعي
أيها
##لبين
شخصيه
٢٠
تفكر
ضخ
pm
منصب
تبقى
اكيد
400
##الأ
واسع
##أى
نعيش
الفنون
##ركاته
الميت
##سير
الاخلاق
الطائرة
##لايت
وبارك
مفيش
فساتين
المقدس
لجنه
الحصار
بمعنى
الامريكي
المطيري
انتاج
##ran
آمن
يسمى
المكلف
لل
##عاة
الاشراف
##عوة
##بوت
مالا
صادق
##مكن
##if
نقد
##ددت
السيطرة
العالميه
ارهابي
آب
الفرصة
ليوم
عمال
سند
نطاق
طري
حرية
نيج
بالز
مرش
ديالي
لشركة
لإن
لمص
سلو
إسحاق
تسربات
القراء
##ss
للاتحاد
يذهب
54
الرئاسة
##احبي
ارزقنا
طبيع
الرأس
##لفي
جاب
إنجاز
الشار
للمشاركة
الالتزام
وشع
فلان
الأسهم
عقود
تدعو
الانتقال
والذين
نموذج
##اوى
رمي
يوفق
درد
المعنية
بابا
مضيفا
اختلاف
بحاجة
بقيمة
قمت
وسن
اليمنية
خاف
بالذ
##لاحظ
بعث
##ابعك
محفوظة
المعرض
##ST
##ونيات
##reatment
##صين
نبيل
القطري
التحكيم
am
Ph
صيد
الفرنك
الكهف
##غريده
جنس
الموظفين
الموصل
الرائد
ظهرت
فوتوشوب
##اخر
##رشيح
قرنية
أكدت
متفق
##طنا
فولوباك
العسل
الإيمان
##ماذج
عشاق
سع
##واتر
أبطال
ورضا
ميلاد
الشروحات
حاتم
حاف
سيناء
دراسات
تسجل
تكفي
##ثمرين
استعمال
الزراعية
##ارتك
##جاد
treatment
عمرك
الزوار
##مودي
الانتخابية
صاروخ
توافق
مميزة
##بق
أحلى
##ليها
##ستور
بالضرورة
للصف
##بتها
استود
##يجي
انتها
##يئة
وإلى
85
النهائية
المهنية
المسئ
ولب
##78
عسل
باف
حائل
مافيه
المشاركين
نعلم
خان
##فاد
فالح
يتعرض
الخصوصية
حارس
التوظيف
ترجمة
##شهد
##05
تبوك
خزانات
ولقد
المحب
غلا
ستت
والانترنت
أذ
الشبكيه
والقص
بتو
طيران
مبروووك
##ak
تون
ادخل
##غبة
##وارئ
##art
جيل
proced
عالميا
معدل
امتحان
المدرسية
تعبير
والثاني
خلك
نظره
والناس
للاسف
واختبارات
##ial
الغالي
##our
الواس
رواد
يستاهل
##AN
القرني
وقل
##لقب
مسار
اليونان
سنا
خلو
##فتح
موقعنا
##ليج
ثقة
أض
متأ
فاذا
وقوله
قاسم
المنطقه
ياص
اختار
##ئها
روابط
الايمان
الأك
الإداري
الحكومي
تعتمد
حلف
##خاء
زالت
الحجز
طلال
جامع
الأصل
والمه
الصندوق
بنكيه
حامد
ممارسة
البابا
##سلم
والمسلمين
فورا
انتظ
##رازيل
باج
رفيق
الكن
##nl
المنازل
ديس
##البات
التوحيد
##ئاب
كوال
ظاهرة
لمده
##اءات
جميلة
¤ô
التطوير
الاقل
الواقعة
يعبر
راقي
علامة
البلدي
اتفاقية
نسخ
تعم
الهول
سجن
مضي
تشطيب
فعله
ننت
الوسائل
يفكر
ابتسامه
لتقديم
القادمه
الوجود
كذ
استح
ويخ
##طوط
أنفسهم
الخارجيه
النفسية
المدنيين
##بيان
فئة
وانتي
##مور
ايش
الحسابات
ظه
مخرج
##رباح
51
التزام
متعب
أقول
##عملة
##ذكير
توكلت
##أمل
مكانه
تهدف
ايقاف
##قذ
هول
أسبوعين
##OP
حلقات
الإعلامية
تبدا
##دران
وقتها
##ولوجية
تسوي
التداول
احباب
##حدات
القتل
تغيب
##ؤمنين
عينك
الحوثيين
منازل
الآراء
مولا
العنزي
الاستخدام
المنص
المشكله
يسال
حديد
استغفار
رأيت
الهجرة
لمجلس
الحجر
صدرك
والشع
##فيها
محلية
##طنين
أعم
##ابرات
يرفض
وقوع
بيب
يقود
اكشن
##بون
مستشار
99
##كسسوارات
Google
محارم
##وكس
واكثر
التسويق
قبله
مستويات
واجه
ضعيف
##ثمارية
رجع
وهما
السادسة
##اصرة
تعاون
اعم
##قان
خلص
تجارية
اغت
##ews
ثق
عائشة
شعبة
الاعلانات
قدره
##شم
اليمين
ومحا
العشق
عوده
إعلانات
الزيارة
##لتنا
تتبع
ضحايا
الإت
والسفر
##ويين
صبح
##نهار
##ولاد
ابيض
المعنى
رسمية
##خصائي
التأمين
مديرية
كاتبها
حوادث
اجتمع
جال
##ظهرت
##سيوية
والاه
وثلاث
كمان
اكتشاف
صدره
يسجل
سهم
##ياح
##ميمي
##فله
تمتلك
العاش
وخير
الأحزاب
يصدر
التاسع
وجعل
##جبني
الذكرى
تحزن
منهج
الاستقرار
##فتاح
التميز
انطلاق
العقاري
البنزين
اردت
المعلمين
##ويسرا
الاستفادة
##غه
لأول
العف
الطرفين
الخليجي
تاريخية
الشمالي
يقولها
ماشاء
رشيد
لاجل
المطلوبة
بجانب
تؤدي
بقيادة
اغتيال
##ex
##ونيه
حقيقي
##75
حقه
##وقي
الاحتفال
روت
##يدات
إثر
طالما
الحلوه
##غاف
وأيضا
خارجية
كثيره
بكت
53
##يرن
جاي
##صلا
النفوس
##صرت
انع
مهارات
##يكية
Sp
تموز
##قالة
##هية
المقدمة
الابتدائي
جماعه
الحشيش
إمكانية
بقوله
قياس
ويك
##لتهم
داف
##جلين
وبرامج
##جموعة
اعتماد
صحه
خلاله
##بدال
غيب
##ang
##جهود
أمل
الرعاية
العطاء
الاعلان
##ئن
انطلق
المحيط
متفر
حزين
أنظمة
سيم
احمر
##شرون
عبده
شويه
خطأ
دائم
ولهذا
سينما
اسمها
للاطفال
أصول
الشبكة
بطلب
ندوة
##حيي
تشبه
وبلغ
التربوية
##ذكرك
لاعبي
عباره
نشرت
أنس
الفنادق
برق
البرلم
##نتها
##صت
حصريا
الحروف
الجريمة
الجرح
سلا
شركائنا
##حون
مسيرة
المنشآت
Bl
##ئله
الميزان
الذهاب
##كسل
صم
المسيحية
شئت
##ظى
ثقي
ولفت
أحسن
تصنيف
الصرف
يأخذ
الرئاس
##لتقي
الاداره
القوي
حقيقية
القيامة
وري
##ology
##عراض
ونقل
##وقعة
الجلو
يصنع
الضفة
جانبه
Ch
البصري
للشعب
ختام
علاقتها
##عدا
الأخضر
قصائد
الفرص
صاحبه
السوداء
##درة
ضاقت
يونايتد
##ربون
لعملية
سبي
دوره
وكأن
##فك
جوري
##زنة
بانك
العنوان
رحلات
لايف
##لجي
##دات
عملت
وشراء
Sh
2003
اطلع
ارج
##وفى
##أكيد
##all
معدات
تتضمن
##وضيح
عقل
اهلي
أبر
##26
##لربع
الربع
الليلة
##الص
##ويترز
والو
الطيبه
الأساسي
لعرض
##اردة
النفسي
العشرين
قصد
فاطمة
الخري
ويوم
بجامعة
الثامنة
يوفر
##عايه
واجع
رابطة
##جون
الدوس
نفوس
علق
الكويتية
قبول
اذن
نحتاج
##علي
##لوث
الكتابة
الإج
##ئمة
الحلول
ازياء
الاحمر
الانديه
ولله
الانا
ساخ
خاض
مابي
تسويق
معتمد
تابعني
مزاج
##ميك
##لحق
اعدام
الشامل
رفعت
بقية
كسب
معارض
متط
حاولت
##جنب
دوا
وذكرت
تشكي
الكس
يسي
المقص
سار
##زقه
الشهري
##79
شير
أسئلة
##عدت
بالمر
عبس
عموما
الغضب
اقسم
مذه
##وائر
القرية
##ائكم
مؤمن
الوثائق
##ويته
تسعى
وانه
تاتي
المسألة
قديم
وأكثر
##حنا
##شاط
والرسوم
##بهه
وظيف
زان
لمواجهة
اسمك
لانت
عه
بايران
فقلت
الرياضه
##ختبارات
بعدد
بالنسبه
واث
الفندق
الدائم
##حمين
##عوديه
الأنبياء
بمحافظة
اعلنت
الشخصي
الإقامة
وصفات
تختلف
القادر
وحي
الدراسية
الباطن
روما
والشعر
جحف
##شكيل
أشار
قلنا
التعليمي
إفريقيا
وأد
عمرها
##ارو
تعاني
عامه
الخارجي
##ate
بطوله
##ip
النصف
##رشاد
واللودرات
الأرشيف
##وتيوب
ووف
مشهد
أحيانا
الصمد
يدعم
الشيعي
خصم
السفارة
الأدبي
##قده
باه
المصار
سكري
##واحي
جريمة
والصيانة
اقرأ
شقة
فير
القبول
إدارية
ميلان
تكنولوجيا
للصح
الصوتية
المقطع
لشهب
قيمتها
##داة
##يمين
##ربا
تدعم
كلامه
قمر
امنيه
##وتها
وحم
فريقه
كامله
اعداد
سبعة
دمع
تفعل
##ht
مرشح
المصورة
تشارك
##راعات
##age
الترجمة
الغني
شد
وظ
العوا
للسي
بنظام
##شيه
##يقظ
ô¤
وصحبه
ضحكت
##سها
قليلة
##باني
وغيرهم
طعم
تسعد
##اضرة
ارجو
##قود
الاجر
##طوره
الوحده
تسم
مخيم
تصف
##ok
جاد
النسخة
##اير
##قوله
المشاركات
مشاهد
بتقديم
والطفل
##شخاص
فيس
القيمة
##طيات
قران
سوها
الامريكية
عملا
الاصلي
يتضمن
الجواب
زه
قدرة
القبائل
المجا
خلفية
لسانك
الكلمة
عاليه
الاض
##جيال
قالها
إسلامية
عدسات
توصيل
الاسنان
ex
##شير
للرئيس
للتص
معالي
##جيه
فنية
##لطه
بالث
عملاء
##يراد
ومات
اصل
##شب
بيده
الصحابة
##ديها
عالي
يحق
سفيان
الراحه
شغل
ستايل
صوتيات
تضمن
##داك
الجوي
حزيران
##يقة
##بدل
تجديد
جوائز
اعتقال
##لومة
وبس
##طالب
##فان
##هههههههه
والتنمية
البدر
معرف
السودانية
##امرة
محطات
##ياض
كنتم
وإلا
##ائص
وصور
أحدهما
السماوات
البعيد
الخلافه
لموقع
procedure
الول
يذ
##يفو
حظر
الار
البت
والأن
المستمر
وعرض
سمي
سلطة
##اهدين
سلوك
الصناعة
ونص
الصالحين
اعمل
ربط
##قله
وته
بلادي
إصدار
الرافض
##ax
للشباب
رصيدك5
والنس
##ارتها
الشبكات
السعوديين
فيقول
اترك
نصيحه
المتنوعة
الأشياء
##خبارات
تحرك
الاعداد
الانتظار
##ظهار
مبادرة
والنا
وتقديم
واعتبر
الشرقيه
تجارب
الأرج
المقالات
وكما
الأغاني
يمتلك
معسكر
محاضرات
مصنع
##ماعه
المصالحة
انزل
##ضت
تهتم
مرسوم
اطلب
جوجل
يعيد
##and
Pl
التهاني
المجانية
ولج
سابقة
موز
وبدأ
##رن
ابا
##IN
الامتحان
الفلك
يختلف
معانا
بقلبي
اتح
لير
تبدو
##ry
الاستش
وحسب
كلب
بقد
ليلا
with
بيري
التشكي
بالرغم
إعلام
القروض
احذر
طائرة
##ريكيه
التنسي
الجميلة
ودعا
والإس
شريف
بحجم
حجز
##يتنا
التركيز
المرضى
حصول
تواجد
المهرجان
##طرا
اشتاق
واحفظ
الرحيل
##انز
##دع
وأضافت
يكره
شوارع
##دادي
##ماق
دورا
لرئيس
لافتا
عتق
##لاميذ
كه
##بارية
تسال
العاشر
##وطه
##نازل
مشتاق
الاحترام
##واخر
دب
القلي
الجاد
المتوسطة
يطول
##تهما
الحافظ
رحي
الاسباني
يدور
الأسلحة
العمالة
اختصاص
التخصص
حوله
فهناك
ترضي
سخ
المسلمون
الدوسري
معكم
بالذكر
الحقيقية
##صن
بالكويت
وقام
نهائيا
##ثى
الجزيره
دو
لنت
ناب
قادة
رئيسية
فلك
تركية
لسه
المبادرة
المشهد
الحكيم
##echn
##حول
تشحن
نام
ad
ودك
الكرد
المنظمات
فز
الماج
##وقة
##ناع
لفظ
جدد
##71
##نياهو
كش
المحافظات
حشرات
##اجم
##ديف
الطائرات
##عتين
##وبيا
##نساني
سامسون
كفي
هيئه
محاولات
اعلي
بيته
العربى
##اقم
لحل
قاتل
المصالح
اشعر
طائرات
الأحوال
منوعات
##البا
المسلسل
استط
المساعدات
##فرة
##كريا
تكريم
الصهيوني
عماد
بوضع
معركة
يتجاوز
لمنت
الراحمين
المحتلة
اسرار
بينه
##واقع
الشرقي
باسيل
إيطاليا
والولا
روعه
##pt
رقبه
المقابل
الصعيد
الملي
ميدان
الجامعي
فقدت
الوجع
اعترف
الإيرانية
##وسى
استطاع
ابتداء
عينا
هندسة
كليب
ليون
التوصل
مستقلة
ملع
يزور
الصيانة
##صلين
زوار
عمران
اتي
##ستون
أرس
بثلاث
فراغ
البطل
##61
الكلي
الترتيب
إليك
تكوين
##ابته
مواليد
عقده
السهلاوي
##ائز
برف
الثنائية
الحاسوب
##يبي
ليكتب
الأفضل
بالدمام
قصيرة
تدفع
تدريبات
والبي
ياا
ايا
طبيعية
أسرة
الواجبات
عينيك
رياضية
##ph
##شعر
##ard
##طرت
تستمر
الدورات
الفردوس
مستح
##فعت
للمؤ
##tor
انهي
العناصر
مكياج
يتطلب
84
##منا
##لوج
هلالي
الهدا
ولكم
##طبيق
##زلت
ارتفع
##اديه
عاصمة
##ساقط
الباط
الكوم
تحليل
وتحت
ذكرك
البرازيل
وكت
##بز
رؤساء
طبخ
##وبين
##لروض
بمشاركة
##عبه
الروض
قله
البري
غاية
##ختار
اولى
المساجد
الاداري
إلغاء
##ذاعة
##لمك
جملة
الراس
##وانا
##غيث
للات
البحوث
الديمقراطي
الحفل
الوعي
البطا
بالاتي
##ديس
بيستفيد
والمك
الانمي
عمار
الجامع
##ضباط
هريرة
صال
##ياسي
ثانيا
طبيعة
##OS
##روز
طيبة
السابعة
ومنهم
الإجمالي
الوصل
والفر
سماحة
الاحتياجات
##رمى
واز
مزوري
موضحا
للعالم
الفكرية
##قرب
السماح
التوالي
والمط
##يادين
تايم
تخيل
رحمة
احدي
اقتصادية
الذهبي
فرانس
##وضحت
والانت
##اشي
يسهل
دونالد
##فقود
والتش
الروايات
اغلي
بوجه
كونه
أرسل
الحاجه
##of
للفريق
فراق
مشرو
والاحت
الأزهر
ارسل
هواة
تبا
جعلت
مميزه
طويله
##دود
##لغاز
الحكومه
المراد
مراس
المجالس
البور
العالية
كبر
خرجت
لنفسه
شق
##ريدة
وآخر
لذه
البوس
##باحة
##امله
##اءة
##كرون
مشاهده
عطا
يستقبل
المجموعات
فرحا
المحي
النقابة
كهرب
النووية
##وكل
##63
والقر
فقر
الجوالات
##شاريع
توصل
اليم
مقام
زرا
القارئ
الإرهابية
تحرم
##ستها
وبناء
##ED
الكلب
##غن
الميلاد
الشأن
زادت
##عال
الجر
لاحقا
الامين
##عودة
الباك
ماهر
ويل
الجهة
وعمل
حدثني
الاختيار
بره
يتمكن
##صيد
هني
تأمين
الثوري
الغز
تأسيس
كمية
الثابت
والصور
##سيات
مون
##راتيجي
والارض
يسعى
وتكون
سيس
يقضي
مرج
تعلق
جرت
مشغ
بينك
Arab
حاز
يامن
لضمان
الموسيقى
غام
الذاتية
توقعات
نائ
##رطوم
##والف
##ie
مواعيد
##نيها
لاد
##وحه
والحر
##ونديال
ديب
سائق
صلات
كذب
موريت
زب
عبدالكريم
ماتت
اسلاميه
بالاضافة
اردوغان
الجبل
للأطفال
محر
يلتقي
الخالدي
وأب
التنظيف
الماضى
بطن
قويه
CN
##94
العشاء
##ايه
نحت
العت
توثيق
حسني
عدسة
ديف
خض
شكلي
##جاهل
##▬▬▬▬
فحص
وبعدها
##ديب
الوقا
سنتين
اكتوبر
صعيد
أدوات
الحصرية
##قتهم
##ندات
استراتيجية
اللحظه
المؤلف
تقلي
المكرمة
والاش
##ران
والاخره
##يازات
تطلق
صبري
انطلا
بآ
##بس
الإصابة
تمنع
##ستغ
اسواق
الفرقة
صيدا
##سيما
##تيك
مكتوب
ليفربول
بخط
يصلي
##راوح
خليجي
يحرم
##روها
مازال
محلات
الفنانة
البطولات
انو
##ارفور
##وائي
##اااااااا
التابع
الغيب
##هاجم
غم
تلعب
إصابة
لتر
الاراضي
بالمح
اطباء
يبكي
اتباع
مراد
##امير
تطالب
##جدات
والمسا
مدخل
##امع
والخواطر
المذكور
##وطة
هنالك
##وائم
النتيجة
ندعم
##ديدات
حدا
يومك
##ضاة
سئل
أغلب
ومنت
لرب
نورا
##قتين
نظيف
##ver
كرا
##روحة
شفاء
##مائ
##شيء
##نو
عينه
المحذ
تصويت
##ماهير
المحتوى
تخلي
القتال
حمام
رويترز
الفوركس
اتوب
##طت
القلق
السياق
نسبه
وعليه
حمود
##قتنا
سهولة
##اتمه
جوي
كفايه
شاح
##OR
البواسل
إذن
يتابع
بمناسبه
السني
سبورت
للتعليم
الجنود
شهيد
جواز
منزله
##عدك
الدع
البرازيلي
الصدق
الخيرية
##شيط
##TM
كاملا
فيكم
كريستيانو
فساد
الاستقبال
النخ
التعارف
قائمه
متف
والاجتماعية
##ونى
الساخ
يوف
فريد
الزجاج
تغريدها
الوفا
الاعلي
حديثة
الأداء
انتبه
##عاف
وتشمل
الانتهاء
الإبتد
ادوارد
ملامح
نقطه
الدستورية
امره
##زايا
مذ
يؤثر
العوني
العقول
##بورغ
الند
يسير
##كرين
التحت
وصح
##ظره
الكذب
مربع
الأزرق
##اين
جير
##شون
مشرف
أستراليا
ياللي
الميد
مثال
يتوقع
بفتح
الجامعية
التجربة
##بهات
##ond
انسي
بيض
الجبال
بموجب
##فيظ
##قيمين
##جعل
الاعتماد
##ولوجي
ارزقني
انفجار
##ابتن
عزام
##ازه
والمناسبات
##حونة
موجودة
وتحميل
##الفه
##وسم
الشكاوى
لتت
عطاء
عاشق
خميس
خفض
أولاد
قلق
##مانينه
اسرع
##صلت
تتوقع
##درا
##لندي
الفراغ
الفلبين
والحياة
الصادر
بتف
متس
ارتك
التقليدية
##ويلات
القضائية
متوا
مفض
##اعل
##فلون
المؤكد
الترفيهية
##كرانيا
ذاتها
نر
الأوضاع
##صاف
قاط
جراح
بوسعك
اهداء
دبلوما
الوليد
اطلق
##بني
يسبب
سباق
سيرة
رحيل
فعلت
الليالي
رومان
##صفه
تمه
تقر
مصرية
الرياضيه
##ماه
##عبة
العمي
علمت
هاشم
لهما
للجيش
بطر
##هوة
يبدا
يرحمه
والليزك
##ابير
الهلالي
الاستراتيجية
بتق
دينية
جبهة
المرشح
الكيان
##ايلات
##صام
التخلص
##ناقشة
##قيقيه
التكن
شين
مستع
##بطين
قرارا
##باكات
أمنية
شيع
راجع
بسعر
سيدات
واقت
##فعه
مسير
الضيق
بالليزك
##غيرات
ينزل
##طبق
شامل
البث
امرا
تلقى
الزع
والمج
##ائعة
جندي
مدين
وبركاته
##حبك
الذكريات
اهله
##اكد
##وضي
امطار
منوعة
##عارف
سويسرا
عكا
تتكلم
##دمات
سياحية
عشرين
التمويل
إليهم
الاسود
عاطف
دونيس
نتنياهو
فرقة
التنفيذية
عربيه
رجب
الركن
الشراء
الأسئلة
الأنمي
فط
سمه
واط
بيتك
حرص
الجرائم
يضر
##ملة
الألماني
سببا
والار
المعهد
##يض
##اها
##ائيا
##وقوف
موظف
والمؤسسات
اهد
نستطيع
لاه
##قض
والاف
والمف
##ضافات
خساره
جين
الشعراء
الثان
الآثار
تلف
##ياتك
المرس
الاخيره
بغي
أوباما
محور
القن
يستمر
روحك
يفوز
المعي
ميشال
نواب
جولة
الليبي
البك
حاجات
خدمه
بيه
##حباب
جلال
الخرطوم
##فيك
ماعاد
مائة
غربي
وأح
والاعت
النقاط
سخر
ذكريات
مغربي
التغذية
##فايات
عدو
نتيجه
##هرج
##برك
##صارات
والبحث
سرعة
##ive
##هلة
يشمل
اكتشف
الفقراء
الحيوان
يحكم
تذهب
ايجاب
يديك
وند
600
ثان
مسم
التاسعة
##انها
نجيب
أرج
حني
قراءه
المستهلك
كير
لمزيد
حديثا
استغلال
الظاهر
قضيه
وتاريخ
طعام
##رابي
طاع
اا
مرب
جحفلي
استخدامها
وسداد
تتغير
الفيس
شعراء
تقنيات
يقرب
ويحت
سوبر
والشر
ايس
##دعي
المتقدمة
والعراق
التصرف
تحيه
سو
الواجب
##ld
##بيعة
العط
لوكالة
##جازة
رؤوس
ياخ
البيض
مشتركة
تهن
##وضى
مبنى
##اهة
العباس
ونه
باص
الزائر
1000
##تاحة
##امرات
##روك
حسابه
اكل
الكث
ألفا
غينيا
لمعرفة
محسن
زار
الجبهة
##سيب
أعراض
وقفت
جار
صغيره
اضحك
##رافية
الربح
وكتب
حيدر
الخضر
ينام
باني
قراء
بدم
رسوم
توحيد
القادسيه
##يرنج
الطبقة
النعيم
صحية
أجر
التحديات
المراكز
الصالحات
الفيزياء
الغي
التعاقد
قالو
سوم
لمنع
يحل
كلامك
يتحمل
##ئيل
عباده
متابعه
##صاري
##pp
غاز
مبيعات
عظم
موسيقى
##ساسا
شنو
٢٠١
##قك
والمخ
##ناية
نزلت
المجمع
يرزق
اعيش
لايع
##ادير
زيارته
وزوج
يديه
اير
وظيفة
المحمول
##قسم
المنافسة
وطالب
بلاك
الخبراء
الجمعيات
للدولة
الأقصى
مابين
الود
2001
محددة
ولايه
يصح
هاشت
##ge
سلة
المهني
ابيك
##دن
عربة
تدا
أجمل
روايات
##وون
##افيين
وأعلن
جها
احبتي
الزيتون
Invision
صباحك
البعث
Pro
وبحمدك
راد
يحضر
نفت
مفر
كبرى
المسار
وبأ
المذكورة
##ذور
قادرة
قطعة
العجز
##ows
المكون
التأكد
للأمم
نون
التفسير
الناطق
##اتين
لاول
##يبات
##كرت
القريب
تبارك
الإيطالية
مولد
جرب
تضحك
ثقه
الأزياء
##ذنب
التنسيق
##نفس
تصبحون
سائر
رحل
الواسعة
##ااا
مهاجم
##وابط
وكنت
التربوي
##ظاهرات
موافقة
بطولات
دعواتكم
اقدر
أنباء
ارفع
يعم
التعلم
والحب
##ماش
تلم
العتيبي
بمجرد
حالي
##اريف
باتت
مليارات
سكا
العثم
الخيارات
الميك
الحمراء
المعجم
اليابانية
الحاضر
البرمجة
الأسنان
what
ثمة
مصطفي
##حيم
بدور
وزيرة
البطر
##وكيا
الدينار
موسوعة
ينقص
مؤقت
تفكير
##غلب
الإسكندرية
##شراف
##صرح
##فوا
التمر
عسيري
##يفور
الثوره
##AD
اموال
والطب
اللغه
##ارسات
الإجتماعية
اسمي
الشهير
الولد
المذا
جناح
تجهيز
##89
انفسهم
تزوج
يدعي
الكتائب
بالمس
القصر
هامش
لانهم
شعبية
الشيعة
فتحت
تؤثر
اكره
وجمال
##وفية
التقارير
والعد
الأساس
خاطري
هيك
الخلايا
##داي
##ماج
للمر
الغذاء
باحد
خسائر
##انم
تلفزيون
نسمة
والمواضيع
ببط
أوضح
اروع
##عدات
وهب
تعرضت
##ass
الينا
فالله
تجرب
بالات
اللجوء
البلاء
سامسونج
اعاده
أوراق
مترجمة
تكره
الاصدقاء
##قطة
##رهابيه
الكلمه
متت
##عدادي
حينها
ومي
الخبرات
تفر
لخدمة
ايراني
لحماية
الفقيه
##غاث
##نود
لدرجه
الدوا
تتميز
##رحيل
الوقوف
وشكرا
احتياجات
سماء
##هدوء
مناقشة
نقاش
اقتصادي
وسا
يفس
تأليف
تفس
جسر
بدات
##لينا
التجارب
ضمير
يشير
الخطة
##ستا
قا
التطور
نظيره
الخطوة
##ذاء
مايك
الابطال
##لاقه
توت
##كولات
##لالات
وشدد
انام
شلن
##قدة
تابعة
تعليمية
الاستمرار
المحامي
فضاء
Ad
فيسبوك
بحبك
##كوما
وحيد
معن
غرائب
يلد
اتابعك
بصوره
بمثابة
##محمد
بالحب
المفتوحة
AL
تتجاوز
##بيدات
وسيلة
##يال
وعز
فروع
الهاد
واشرح
شباط
ومك
كيلومت
المستشفيات
التفاؤل
مجموعات
##غالي
المفاج
فحسب
سواك
ولح
يعرفون
##كنة
روب
##قرة
منتج
##باقي
طع
إمام
ودع
قصير
واك
تمكنت
##غولي
And
مبالغ
ويعتبر
##فري
بحد
الاستفسارات
كنوز
والاقتراحات
المخاطر
الشرك
القومية
ماه
المصن
##اقب
##الين
##72
للري
تاكد
محافظات
اكرم
بيار
رغبة
النح
استث
054
مكاتب
التحتية
إنسان
الولادة
عضوا
حوالى
استد
المخرج
كدا
##امح
قلبها
الخضراء
اكثروا
##ونغ
اليوتيوب
يكونوا
##شتري
الجوع
لتنفيذ
ملحقات
##وركا
للاعب
لابن
تدمير
مشد
##تهد
فلل
مباشره
##بيعي
نير
اتصالات
اتفق
##بلج
##شرف
الأصلي
المتدا
فإنها
##رود
##يجا
موك
مراقبة
##roid
الملاح
مصاب
المخابرات
إقليم
##ذى
##اهيم
والعلوم
بقيت
يهدف
راحت
##ثف
سداد
##انق
ونظ
يفرح
محمدا
##ian
##indows
ولعل
حياتهم
قبره
الشهادة
التونسية
الحوادث
لتم
التحضير
الزم
اصلاح
العقارية
سيرفر
اتفا
##مص
سلب
##عدي
لتق
يحدد
الوص
2002
الخليجية
الخيال
مرسي
كنز
والعشرين
اعتمد
##يتي
علاء
##aw
ميناء
يمارس
ينشر
زوال
التوتر
المسافرين
ماين
اسماعيل
البقرة
منصة
شعو
كهرباء
##جتماع
عصام
حولي
ستجد
##يييي
أسهم
ارسال
الساحل
An
وحش
وفع
لبرنامج
الرحمه
العسكر
والمص
مفتوحة
تعبت
تروح
صدا
وثائق
##بارة
##تراك
تراث
القليل
الفراق
مهمه
##تس
##ردود
معاني
الخطر
##ونج
البترول
##وأ
واقول
بالقاهرة
صفقة
موري
لايم
جنتك
وتعالى
120
منطق
الدموع
بإمكان
iP
##وود
صوته
##iz
الامنية
كرد
الاجهزه
احداث
##لنار
الالماني
السهيان
##سست
بحمده
بمصر
الخبرة
بلدي
كثره
بعي
تساقط
يتوقف
##ادلة
نرى
مضاع
الفرس
بتعديل
الرسوم
##لمبي
ايم
عبادك
وقر
اجعلني
##زح
ملائ
بجدة
وحدات
المخالف
حاكم
النهايه
منف
باز
السنوي
لبس
##شأ
التوجيه
##فلات
كاز
فيمن
##ile
ياليت
##وسائل
موه
الاحوال
حسام
الممارسة
العرو
الألب
الضي
الاماكن
النحو
##ماعا
##اوف
أمور
النسيان
##مدة
##لاقة
الفتن
##هودي
الفص
نوا
بلده
أمه
خيره
يضحك
معلومه
التدريس
بشخص
ياق
يصف
خطيرة
استهداف
تتعرض
فجاه
##صرخ
##صرار
شخصيا
يستغفر
والمنتديات
تقرر
الأحكام
والأم
##LC
##ide
الأنشطة
##فط
القانوني
فكن
64
الاحواز
88
الدراما
##EN
##بيبة
ردد
##راكي
شاملة
الدماغ
باحت
التدخين
##برات
باح
بالتق
تستهدف
نافع
صام
تتوقف
لنقل
##رفي
##مرت
راعي
##يسير
##حصل
##قدمه
راضي
حكايه
##فساد
مخط
حسابي
##غيب
جلنار
اسوا
بيضاء
انط
العقيدة
فاص
محدودة
يفيد
التطورات
##الته
##طاف
نتمني
الفلسفة
والابت
الأصول
فأن
شلون
خبير
##بغ
التحقيقات
كروت
يسكن
اشكال
تعليقات
الأفكار
واني
المستقب
##فرت
الساعات
عبدك
الخطيب
المقام
سط
ملم
عليهما
لطف
التبادل
البصرة
الملوك
وفتح
المرف
الممتاز
##غرق
بسهولة
مخالفة
محبه
الطلاق
العقود
الصي
محادثات
بنها
##صابات
##ebook
قصيده
استقرار
اصدار
fem
بفوز
مثلما
جواب
واكت
السري
والعافيه
بقوه
يسعدك
وعق
نبيه
انقذ
مقدم
عبادي
##جيات
##يمار
يجتمع
الجمهوري
##قوه
##ضعاف
الصناعي
ووجه
سعادة
الدخيل
##بث
ولاد
اصدقاء
راجعون
للتنمية
##ES
نعت
انقر
الرائع
التلفزي
بإن
بسيطه
يسم
لحزب
مطاب
##شو
الميدان
الخيار
الناش
##ياق
ادواردو
##دال
بنشر
لمبار
##رفشة
إض
والسنة
بقسم
متوفر
بحكم
الإصلاح
المسلمة
احياء
منط
كولوم
قار
تسع
لبناء
لاحت
الثلث
##فيض
تهي
المار
تعامل
الفشل
رأسه
##ينيو
هدوء
إشارة
للحد
خار
فيكون
الكلا
تقود
اعين
أريد
الانبياء
سياق
الرقمية
عامين
أسامة
الرقابة
جيم
لااله
عبدا
حاض
ضاق
وتحقيق
##لسلات
طلبت
قاعده
Le
الأثاث
ماس
ياه
ادعو
تأكيد
البشرة
وإس
ابرز
مده
لمؤ
للدفاع
المحاكم
القطاعات
##ليفزي
##اكم
اولاد
تصير
مفاوضات
العاشرة
مخطط
##وقعات
##لانية
شرعيه
ونشر
الطوي
هدي
ونقلت
عاز
مطمئ
بطاقات
الانتاج
الابتسامه
عنهما
حصار
الإح
سعيده
##عاقد
ميس
والدين
الايطالي
##ديين
ماكان
##ثله
بتم
الرئاسية
الوحيده
مهندس
ورف
السكنية
رمض
بالحق
المستحيل
خطوه
روسي
حان
الحجم
سائ
الأنباء
المشروعات
منو
يفضل
مستمرة
##خلت
تضيع
علمي
##حيه
##لترا
فاني
التعليمات
آلية
حيل
قتي
جاريه
مليش
يفقد
جائزه
سق
##صى
معالج
ورفض
القصيرة
##عدون
أضرار
هالم
القوه
eyes
مؤلم
وقتل
الإيج
الأماكن
##رجال
الشرعي
جنيف
de
##ودان
رياضي
الحقائق
مطلق
الزور
نسال
تثبت
بارد
عرو
المقدسة
جهنم
ورسوله
ورحمه
استراحة
ينسي
بليز
مضمون
مسج
اوقات
مصن
##قراطية
سعوديه
##باري
تسير
زهران
PK
التفعيل
##جام
قرأ
يضمن
وخارج
##ميله
##وراه
##ركين
هجمات
الرجوع
الملاعب
مدني
##دح
##وبيه
femt
الآلي
##ثرت
##end
والجرافيكس
فاعلم
باراك
##لندية
غيرهم
المبكر
الانثي
بيئة
وخط
##ترط
تصنع
مصطلح
##ستمر
تنسيق
لطب
##زيل
الأولي
الضعف
يعملون
يغيب
ومصر
يصيب
المنافق
العكس
جمعة
احدى
البلديه
الدخل
زام
طاب
المسابقة
المتحده
العميل
انح
##عبير
استقلال
صعبه
##ركية
ياسين
وملح
اجنبي
##acebook
##ash
##ريكى
البلو
والأد
اكاديمي
حكام
انتح
تتمكن
عايش
الوض
طاري
لغيرك
طيبا
والجمال
##تهر
لكون
الأطباء
بديل
اهلها
قبائل
##YD
الاهم
الثمن
بسيطة
##اضل
موظفي
##ime
للاستفسار
بلدان
عذب
مقص
ويندوز
جبران
معاوية
##ئتلاف
بضرورة
##فيع
الطا
اهاب
الأهداف
فولومي
وحدها
##دامة
قصيره
الصادرة
تسب
اجهزه
##شارة
شرم
شوقي
عقلك
انتقال
صيام
الحكام
مستعرض
الجزاء
الموال
وكر
حوا
التاريخي
أثبت
للآ
المرشحين
##ضحك
التلف
ياخي
إعلامية
وقدم
##RO
للمزيد
##مايه
##ويك
##up
الرابطة
يلزم
إمت
##وضية
أضاف
يمشي
تنظم
الحروب
خصوص
##طيك
##عوث
للبر
يقيم
وخلال
Pr
تلو
تنبيه
عملها
عميد
ويبقي
الفج
الكرسي
بيعه
اعشق
الإشارة
Star
##الز
يسب
المسم
دينك
أنني
##ليمة
##ابها
الليبية
##ساتذة
المحامين
للتس
النيابية
##لاجات
الرحلات
لقيت
تجميل
##يكو
القلم
بائ
صاحبي
الشج
والاتحاد
والتعاون
عيال
##ظاهرين
هير
الاتها
انثي
مقاب
عظيمه
شبكات
ماضي
الدر
##HD
احا
وتقدم
الوحدات
المالك
##برد
المنزلي
الصبا
نماذج
الوقود
التز
##سرع
##ساطه
بيوم
تبعد
معص
والتف
تخسر
للقوات
باحث
اعتداء
بنتي
لتخ
فتاة
ارجع
خرو
De
##oad
إغلاق
##وقاف
دلع
الطيبة
للبنات
حمزة
اراء
سبل
##سح
##ياسة
السد
المجتمعات
تكذب
اللجان
حكيم
جبال
تقرا
معناه
بصفة
ونح
الغريب
جراحة
لفترة
اجمعين
الأمطار
شرائ
ابوي
##بقى
الرحم
ثمانية
المحددة
سكريبت
##ity
الدهون
يبعد
أقوى
##ناسب
##الن
##جزائر
##ناهم
ستر
وقص
##لتان
القبي
ودم
##ريفي
##فسكم
والمؤمن
مونتاج
##غرة
##ضيه
وأشارت
رحيم
وبحسب
مخاطر
لاتح
تجنب
لويس
##مئنان
يليق
لتج
نوره
المبت
لاحظنا
ديني
##وجي
اسقاط
تغطية
الهموم
لاز
وصولا
ايمان
خوفا
##للام
صديقي
صفة
اسي
مدونات
##ميها
##ight
95
بفعل
المصابين
ورقة
الشاملة
شعوب
الخطوات
مناه
##عاقة
يساوي
أساسي
##وارث
الواردة
##سيين
##باي
اوت
واما
والحمدلله
##ظمات
حكي
إصلاح
عطني
خيمة
صباحي
ينبع
القرى
اشف
رضيت
وفاء
اللذين
وجمع
أراضي
الخطأ
للسلع
البشري
الانسانية
الأردنية
يسقط
##ادا
الاعتبار
البع
استفسارات
بكال
تحفظ
بالعالم
##وسة
اللام
مسح
اليدوية
السوء
ذاكر
وبما
حلويات
النهضة
بالاش
##جائب
##سهيل
##لطف
للأس
الصومال
ادع
ساره
الإعداد
بجده
امانه
راسي
القواعد
قتلوا
المشرف
الدوحة
يقطع
##وانه
تراج
وابدا
ووال
عذر
مختلفه
يتحقق
المفضل
مزي
احتفال
الانضباط
الياباني
##ائمين
قيادات
أشد
##ناصر
واوضح
سياسيا
ترض
##متاع
غسل
##اليق
نسمع
اللازم
وافق
##iy
##صبحت
الأحاديث
جلسات
والوطن
الوالدين
أولي
استاد
أحدا
الموافقة
تنظر
فانا
الامراض
وتعزيز
السفاره
كتلة
ترفيه
النصوص
##لالي
ويؤ
##لكية
##اتا
صدم
وفت
عرفات
شيئ
اللحظات
##لطات
المنتظر
##رمان
الحوا
مقاطعة
الضمير
ضياع
تفوق
الاحساس
المان
المتبقي
بالاح
معم
##هلها
فولورز
##صله
عائض
لمصر
للحكومة
انتهي
السهر
العضوية
العراقيين
يقرا
##ركت
يوجه
كنيسة
##ايب
ومه
##85
الطوارئ
فلاش
##زاق
##ظيما
فقير
المجيد
الحميد
سهلا
مهد
البول
الشخصيه
تمثيل
اعجاب
##جازات
الايج
التوقيت
استجابه
الحز
تشجيع
بتج
يعلمون
عاصفه
نصرالله
##جيج
يعالج
فول
الحلويات
والصح
البيوت
تحكي
يهدد
والتط
##ؤول
المستثمرين
عائدا
وتحدث
يصلح
وكشف
المنهج
بقاء
عملي
منخفض
160
شده
بتت
وسوريا
الوحيدة
تذاكر
ارح
فاد
##اعية
الفرا
الفكرة
بوف
ريح
صراع
الشورى
كوكب
الفلو
ترق
محيط
اجد
يثير
الصحفيين
التوجه
متاح
القس
##سعيد
أصيب
##وتش
فيديوهات
الحارثي
##راجعة
صواريخ
فهذه
انستقرام
مماثلة
بعدين
المتهمين
الدولى
النض
وعي
هندية
##SD
جمه
##uc
خبرة
1440
السعادة
##فاك
الكار
الواحدة
المباشرة
بالاعضاء
##ساها
حيال
عجل
المدى
الاجراءات
##المشاركة
أستاذ
##وجة
طلبة
إدلب
الفنى
باستمرار
##ذيه
نزار
والى
المناخ
##حرار
ياد
##منه
##جهز
نشوف
تأخذ
صوم
الأطعمة
والأخ
##ياتها
يخاف
محفوظ
بقلب
السجون
الوقاية
حذر
##بيات
منافسات
تفجير
##تكلم
تحدد
تكلف
الإله
بانها
ملء
##واية
##همين
Dream
صوتي
doc
نادر
وسر
وسدد
السياحي
افكار
وبدون
الاختلاف
##داخل
لاف
ممر
قهوه
سياسات
بلس
للنساء
شاشة
##لعه
يشار
بالمست
سماع
المحر
اصط
بارت
الدليل
رحب
درويش
##ite
be
أيدي
تمسك
بالضبط
بلح
ومخ
ينص
المتابعين
للشحن
بجودة
بتوقيت
يتأ
مقابلة
بشري
##غلال
بتش
والمسابقات
دينه
ذهبت
العادية
##مث
الكرم
والمقالات
لائحة
بالأعضاء
والحزن
الاجابه
الديوان
صاحبها
ورحمة
الفيصلي
Ar
ربح
والعربية
نطالب
الخليل
كويت
هامة
بلال
وأحمد
##46
الاجمل
مكتبه
وجوده
الوهاب
##داوي
##عمر
استاذ
يطرح
مسلح
تبني
متابعي
تسقط
جهات
شديدة
اخط
انتخاب
الحمودي
ونفس
للأسف
تخاف
مذهب
النك
ذنوبنا
الامان
وصاحب
اسر
للهلال
اصلح
##لجأ
##خبات
اراضي
##جيد
والعق
الإحت
وفيما
ميون
##برم
القاب
أسر
يصعب
رقص
##مش
pl
الوات
خايف
لحضور
##وعد
أغس
والترفيه
المتخصص
الجامعه
مطلب
800
اخوي
برعاية
الجماعات
قاس
##ames
عقوبات
أخيرا
اختراق
##عادل
لكان
وضعف
ردود
كومي
##زات
الكترونية
##واها
موتانا
كتبه
احلى
نوعية
##خلف
ul
نجح
ياف
##وليه
##نن
##شال
إند
المتعثرات
شرع
محرك
والشباب
تكري
أشكال
وزيادة
المعركة
مبدأ
فلسطينية
##ينت
بتهمة
التطبيقات
حمدان
##man
ايق
يخدم
##لود
يتمتع
الاسلامى
##رائق
صدرت
##ome
همي
المستعرض
اموت
للايجار
##ينها
̈°
أعد
المشكلات
دوليا
##شفاء
طائر
لأنهم
أجمع
تنزيل
منزلية
الفائدة
رجاء
##بعه
تحط
المعالج
تدل
أفكار
لمكافحة
بشير
انفض
##سنه
سموه
الشفاء
كوست
خيال
زوجة
ورؤ
المنبر
مستعرضا
الحارس
شاهين
##بري
برك
تعادل
##وفرة
التوصيل
بشدة
##وفات
شمو
تيار
غالب
للمجلس
##ous
سريعا
الفطر
واشار
الأحياء
##شري
سنغاف
وأكدت
وبذلك
وعبر
اللحظة
الاختبار
انتصار
##قيمت
الرش
وراح
دارفور
القاعده
حديقة
##جهل
فنون
وني
الراي
وسيتم
لشؤون
لوقف
الأسماء
الطلا
الهندي
68
يرضي
تنفي
Windows
##نامة
يضرب
لاحول
اقدام
الشعرية
إيمان
يشاء
##وافي
اجنبية
##للات
السوها
تعيد
##قاسم
أسواق
يهدي
الأهلية
اضافي
ساهو
##ill
استعادة
النوا
بوست
عده
الآداب
##MD
كالم
الاستثمارات
تفضل
الدرس
هاني
فيلا
تقي
واشت
المقدم
حماة
اسلام
ويقال
الطائفي
الأديان
وأخذ
تحسن
وايضا
جهته
السمع
السلوك
##تز
طقم
التربيه
##يجاد
اصيب
##ويع
##اليف
بخلاف
اعتراف
السا
برض
وسجل
الجليل
الدائرة
يخليك
##وصات
والجن
يدين
العدسات
والاستقرار
سهلة
أيلول
ورم
الإقليمي
الكرتون
بريف
تبتسم
لوزارة
72
##oft
وحفظ
لغه
المراحل
الزين
عرق
سح
السليم
حامل
سيدة
الأدوية
أسوان
##بدء
الهندية
الذنب
عر
الأمل
للرجال
أعرف
أجزاء
سامح
والرئيس
التوقيع
الجبير
تدرك
الظلام
فارق
##رخ
اتهم
الصاب
يوضح
سؤ
ترفض
##انغ
اعز
الباقي
اعتبارا
تخفيضات
ناز
قف
الأثر
##أه
والثقافية
الأحيان
العينين
أمريكي
##اور
وشعب
الفرحه
البكال
قبيل
##ضمنة
تأخر
##ساة
قات
إدخال
المعتقلين
يقصد
نيجيريا
المائية
الارهابي
طفله
مستلزمات
ورض
قلم
##بغي
اسلوب
والرياضة
حقك
الأكاديمية
##ياكم
المختصة
كفوا
تنه
امنا
تجاري
ومنذ
##وقية
استقب
الستلايت
الصيام
مرحله
##قاليد
منظمات
الاستخبارات
وفيها
للرا
إط
صعوبة
الكافي
يخلق
الحجاج
##وظيف
عجائب
حركه
الشارقة
بقيمه
##ائله
اكسسوارات
تايمز
العقارات
المكررة
##وتوغ
وسام
##اروخ
بالدعاء
Android
التقني
الريح
##فاضة
ماا
وجودك
أزياء
السلامة
المشورة
##نيد
رات
وحقق
البدء
تاثير
يعطيك
وافت
ظاهر
تربوية
##يرها
##برية
اسبانيا
عمق
ساد
الوط
الولاية
السوريه
نهار
##قادات
مكس
فرنسي
تتج
##جبت
##للم
053
والسي
باختصار
##فتر
تخصيص
اللات
المجه
ستح
مطب
##يائي
حرق
يحس
##ميص
شهادات
##خلات
واحترام
price
مفيد
التقى
##واتيم
والذى
وبط
المستعرضات
##على
والتهاني
التقنيات
يراك
الناصر
الحكا
تفرح
الميزانيه
1437
تعتقد
بالتسجيل
مود
67
اجواء
شريط
ولمن
##هى
اونلاين
الشروق
النموذج
يعانون
المتميز
اينما
سجلت
مخصص
الناخب
##امعات
بالبشرة
الليبر
ليالي
تحد
التعرف
تجيب
يومه
##لجيكا
بالمنطقة
##اطب
شعبنا
##اسب
يجعلك
رع
86
الشيرنج
الكليات
البرية
##سيع
##van
##باره
##لعت
يروح
##تيبه
حكومية
ثقافية
وكيفية
الفاس
خاطر
المقصود
كاش
وثيقة
ويص
فالأ
انفسنا
استف
مثلك
مطلقا
بدوره
##عونا
زياره
أخي
وحتي
مبس
الفم
سياره
حبيت
الصلاح
وانته
كلف
##دوا
##نائه
بسب
الهدوء
المتعددة
##ياها
##وقه
نشرها
الوظيفة
القدرات
##واعش
##عبد
##mail
##MT
##رصاد
بوج
اخرج
يتقدم
مارتن
والامان
استن
مشاركت
المرجع
فتاه
تايلاند
##96
الخالق
يقوي
##ختم
وتوفير
##OX
الفيت
##ونهم
للتغريده
بقر
صعبة
##علانات
زبد
وقنا
##اعب
داعي
صدورنا
الكفر
المغت
##ثث
يرك
مسجل
an
حالك
وزيرا
آلة
تفيد
المجاورة
أوغ
##اهه
عاوز
فلس
ماير
Com
وحقوق
تشك
الناز
الوطنى
doctor
مام
الجلوكوما
حققت
كيد
فرس
##ium
سقف
الفتره
عبداللطيف
استمرت
##ien
يصدق
اهمية
تجار
مهام
##واره
الهوية
الأفراد
مطاعم
الموعد
بيل
الكيمياء
##ياسية
رئيسة
مؤس
##سنوات
اهالي
الحن
دردشة
الدواء
القذا
##عاش
زانوسى
كميات
##ليزيه
السيف
ومنع
للكبار
ارسنال
إزالة
الدكتورة
العامل
والأح
##وانية
جاهز
الاستعداد
والشيخ
ثيمات
اية
الصواريخ
يحيي
المنس
انشر
##SL
استودعتك
كو
والاتصالات
العظم
البوسنة
أمرا
والثقافة
الازمة
##RE
الحكمة
والاث
قولي
##يتا
كاريكاتير
بتأ
##ونلاين
زينب
ارهاب
##مك
يدافع
الزهر
وينت
##بعاد
الاتح
ناص
سني
الجنرال
بورصة
صلة
كارت
التام
مصرف
مذكرة
برميل
التأثير
تامر
إلخ
##ove
القصف
ملخصات
مقه
لوحات
جوه
##صيح
يدك
الأسر
##حى
الانسانيه
لوضع
بإذن
وهن
بقايا
الفتاة
اليومي
للاحت
الهولندي
لايك
آي
يواصل
هولندا
هدفا
بروت
المتداولة
صاب
جعله
##كى
التوقف
حصة
خطورة
أولئك
اليورو
وأت
أهالي
وسوء
أدت
##رجاع
ولكل
محس
الفائز
الحيوية
بورت
بدءا
فكانت
الخاتمه
لال
اندرويد
المستويات
المشار
اجراءات
هاشتاق
تركت
##عبي
##دها
كرو
بجروح
الإسباني
حش
أشرف
مرسى
بموا
استعدادا
استطيع
العشر
اوراق
تصور
##ديقه
##ey
لعبه
ومنه
المفر
يضيع
##زياء
وروى
الروابط
غسيل
خاتم
شاءالله
افراد
الصداقه
قيس
العذراء
بالذات
وقي
فتنه
نادى
لإدارة
فعلى
##ناسبة
للجنة
واصل
تغفر
##جى
سامبا
الفتيات
##قاومة
لطيف
غادر
المثل
دوم
رضاك
يعقد
مراسل
##نتوس
الفخ
##جها
بروح
بتويتر
نشره
الاهداف
الشهيرة
مرتاح
السموات
يبد
##طرابات
عدي
الفلاح
##مثل
##قاته
##دهور
بئر
ابقي
خطير
##وفين
الحريه
##ائمه
##غف
##قفين
ضروري
الشمسية
يتميز
##100
تميم
prk
فله
رميهم
بالمائة
دمت
يغادر
##كاك
##عقد
كرتون
شأنه
المرافق
##لوف
مشيرة
لور
التدريبية
أفغانستان
الامطار
قاموا
سكاي
وقتك
انكم
مواصلة
تكرار
مضحك
##pen
للتبادل
التهاب
##ثاق
مثير
ملاحظة
انفاس
العود
الصحيحة
أقدم
طيز
صقر
نرجو
لقوات
والأمن
تضر
##فيين
الصع
الانقلاب
المرتبة
##ريحا
يمين
المور
للبحث
المهاجم
المعارك
ذبح
ديفيد
اثبت
اليسار
ايطاليا
##عدين
دواء
##وعب
تتطلب
الإقليمية
إضافية
ميل
##هاا
##ياطين
اللقاءات
للقاء
##طنة
يقرأ
المتاحة
نوكيا
يعيشون
الخيل
انهيار
بيتوركا
للشخص
حمص
يول
بحفظ
الويب
والدولية
الذهبية
أبيب
وإدارة
##قابل
الأمني
بفر
وجهها
هاتفك
اختلف
الخبز
خلقت
النسائية
والمنتجات
كافيه
مضى
##كاديميه
##ئيه
لوا
يدري
سبأ
راسك
##غراض
الاكبر
ديوث
##قايق
الجس
طاهر
بزيادة
التمثيل
ازاي
You
##يسيا
الادنى
محرم
يث
##يافة
قريش
للتع
حظي
##جبك
فاقد
الجزر
البدايه
ايف
خالية
وفاته
الاساس
##اشه
الحديدة
كح
مكر
##TV
دولارا
المديرية
خليك
تغيرت
##مارات
كرك
اشوفك
عقدت
بالسي
الذاتي
كفو
شح
معدلات
بالانت
المهاجرين
الأندية
##زار
يحسب
أعظم
بوزارة
وعائ
أعداد
الدهر
لار
روان
شعبي
أقصى
##قاطعة
ضابط
الألي
والمؤمنات
##طفاء
##ينال
وتنت
##راضى
الضحي
يرب
##رمه
##حونه
##echnology
اقترح
بمختلف
اعلامي
هدايا
##بيك
مسك
##df
بتك
عدنان
##ريحة
السياسات
##خخ
معان
##055
بوص
تتمتع
تنشر
##فقد
صفات
حار
المتقدم
لإعادة
##فران
كونها
الجغرافيا
للوطن
أعط
مالها
##كتابة
المعروفة
ننتظر
الحك
##افلة
##همات
أسس
والإنترنت
مايع
البسي
فواز
النرويج
طبق
##زيغ
رفضت
تؤمن
وقلب
الاحتجاج
للفنان
التقدير
واستخدام
##يباد
##مارسة
سويت
النفسيه
سريعة
للعم
يمنح
يوقف
وحول
واحنا
##نمارك
مشكلات
يرون
لتنظيم
##نتون
والتأ
عادت
تشيلسي
بالقول
للمرأة
إنك
نيمار
الفئات
يقين
للاستثمار
اجتماعات
الارهابيين
الفري
عقول
العاطف
الجراح
##برين
##بطي
توكل
الحكومات
حلال
الدمع
اشرح
عات
والال
وتعتبر
ربكم
أدناه
تكييف
منظومة
المكرمه
شيله
##يناء
الأخلاق
##وينت
أميركا
المستعمل
تحذير
البرلمانية
المتش
نقله
الفعاليات
البنية
##سمين
##ach
رحله
يقومون
الملائكة
علام
مباحث
حاسب
موضوعات
كود
بالماء
##غوا
حيوانات
##قيلة
الغاء
بمكة
وحق
الاصلاح
أطراف
مترا
الانجليزي
المراقبة
##وضوح
الفضائي
روات
الواضح
وجب
##ياطة
بداخ
##دور
##وراق
##برامج
تصفح
وأوضحت
إمتيازات
معالم
##888
الإيطالي
##يرت
مكروه
أيار
لكنهم
طبيعيا
ومدير
للمد
##ong
فقالت
##ستانية
للابد
صافي
احببت
المصنف
##ايخ
ربا
تقتل
السكوت
##لزال
الاحزاب
وربي
داني
القديمه
سمحت
الخش
##wit
وزن
شايف
أعتقد
جهاد
ترش
Cl
اجتماعا
وايت
بصدق
الأربعة
الستة
بلب
تلمي
مهدي
الدراسه
##اثولي
الجنسي
##IG
##طلح
##صدير
اغلاق
رئيسي
بجن
66
##لسلة
##راجة
المنكر
وتحديد
##رائط
تتخذ
فاروق
معايير
لرفع
مستعملة
الاسماء
جعجع
الأردني
جور
مسقط
المتواجدين
البدنية
المصريه
##ضاءة
##صلات
التشريعية
##تهن
القطرية
والخبرة
التضامن
محلي
الباس
أردوغان
البشير
إسبانيا
الراعي
##والب
شهاده
وحيدا
عائلته
الألوان
شأنها
والشعب
اصد
أسابيع
ولوالدي
حركات
وابعد
بنحو
ووزير
حدد
##ضائع
السوفي
بتر
صيا
وإعادة
البحار
تعدي
الرياح
##غات
##رتب
لعمل
غيار
كونوا
الهادي
يظل
الضو
توسيع
69
اشتراك
##ترين
نمت
الفيروس
المسيحيين
أوضاع
كيك
والأرض
##راعي
فايز
##فقه
##دره
##هنة
جفعات
سعيدا
##رائيلى
##av
التحدي
لفر
أقر
البحري
العبادي
كثرة
##روقات
بصد
62
المرابطين
والمسلمات
اخيرا
الرباط
ضمانات
بغض
مرتبط
النزاع
الزهراء
استثمار
بوم
إنهم
المكياج
ماشي
وشارك
النيه
كرر
راك
إستضافة
##ييد
##وفك
الكريمة
يعين
وجرح
المشاهير
فبر
قذ
##ماح
83
صغار
للسيارات
تأش
##زلة
بالشعر
ومشاكل
وقلت
الإنساني
بيتي
مندوب
والاقتصادية
ساق
مخلوق
دوام
روحاني
رصيد
##بطل
رياضيات
وجهي
الأولية
##رواتيا
التحليل
الاوروبية
للقضاء
بالمد
للحزب
بقول
جاهزة
لكني
للتأ
توي
وائل
السرعة
الاماني
الزكاة
بايرن
شاطئ
الظاهرة
##اصد
لأجل
الصغيره
استثناء
وشهد
غسالات
معارك
لاش
##عش
ثوب
الحاجات
الهاش
الامريكيه
قبورهم
الوصف
بالتأكيد
للحفاظ
للقر
##ib
ووص
بالنا
##بطية
##وقفت
وامت
المعدات
النمسا
قوت
خالص
ابسط
##غبين
شاركت
ديز
يعشق
افهم
للحجز
##نجاز
عنصر
وغفر
وشلون
تراب
حجة
يمكنه
##ستطيع
عبي
بصي
or
فاق
وحض
زامبيا
المستقلة
وفض
ونشره
يبعث
##روفه
التمو
ثوره
يوافق
سهر
تمشي
مصرع
محدش
اعطي
الوردية
العادي
روزنامة
##انيم
يمكننا
لاننا
ادعم
##اسر
والفنان
يتع
نيوزي
وقته
والتخ
السين
تهدد
اتبع
الشهراني
طالبان
فالت
##ata
النارية
##للطيف
اليقين
##رمون
##انو
عقلي
##DR
تمارس
مختار
سياحة
اللطيف
الإطلاق
مدبلج
##vanced
خضر
التعادل
تلب
مجنون
الهجمات
الترمذي
الموضة
بالتف
المعني
افغانستان
حماد
والقانون
لكننا
##قصي
لجان
##42
موريتانيا
##ليشيا
بكلمه
منى
توف
ولماذا
المرحله
الكلاب
##ركون
معايا
لحن
اخطاء
تسجي
##لهوب
احتجاجا
الدعوه
ذنبه
خاد
السياحه
##اليل
##ؤنا
ملاك
والفض
الحجة
مشا
##أخذ
حضن
##خام
بتحب
الحكي
63
الدوام
وبكل
المحادثات
تعلمت
العلاقه
اربعة
by
الروبل
##راده
##يتس
الديموقراطية
##النا
الصغار
كرونة
خطي
أدنى
الآخرة
بمثل
##41
تاخ
كلاب
عمه
89
##الش
يديم
إجمالي
محتاجه
عاط
الاجواء
القاهره
فلوس
##ts
يحكي
التوفر
الصم
مقاومة
للكاتب
والخارج
ثلاثا
##وسات
##اعا
مدرسه
الادبية
طهر
عافيه
شمالي
الزيادة
##زول
المويه
##ايام
متضمنة
المقاومه
##ولتين
القليلة
الرومان
##ئتم
##نوا
ماراح
مثلي
اسط
أدبية
لعدد
عنكم
غريبه
دلي
واضحا
الحريق
بالأس
جوده
الناحية
تقدمها
##تيت
الياسم
نظرة
مائه
لوك
الجارية
الشاي
صا
ينقل
الرائعة
لتلك
السائق
##قيد
سخط
الصداره
لشراء
بالسجن
أوكرانيا
شوا
حرك
الوقف
##۩۞۩
هوية
الخفي
يظن
ليبر
الكوك
الغرام
##يفات
##فنا
قصيدة
اشكر
غازي
مراه
قابل
الثم
بيا
لوت
نجحت
صحيحة
تمنيتك
معتبرا
بحلول
تؤجر
##روسي
قتلت
دماء
صفحه
المقات
وطب
سعي
##لتون
شهريا
المره
لتحسين
##شارك
صديقه
المرئيات
الشاشة
TR
##ملف
أنشطة
جلسه
##ضار
دري
best
سلف
تاك
##els
فوج
متحدث
الداعيه
الهامة
خليفه
sh
الإخبارية
فرب
##واهر
##خان
العادة
يتناول
سوس
دعت
المعتمدة
والفيديو
احم
النباتات
لرؤ
همه
##مى
عميق
والنساء
الماسنجر
بالطبع
بالتص
سلامه
والتكنولوجيا
يتالم
التكوين
الروس
##لغي
الأمانة
المصارعة
والشكر
للطلاب
بوع
##ليح
##قدس
##ودك
تهديد
##اجل
نبات
##غض
وتمت
##ثيمين
انمي
السنوية
وكي
شرعية
يتيح
نهج
لأب
انصر
##ery
أجنبية
وبدا
للمسلمين
##فجر
القصائد
رقي
طبقا
الامس
وجوب
قياد
تاخر
يختار
بنس
امتداد
##AC
##فني
الباحثين
تأكد
##خذه
السوبر
نموت
ارتفعت
أقام
بالمغرب
##ign
أخرجه
##غياب
الفريقين
صحافة
الأشكال
وشخص
ورائ
قلة
1994
ليتني
المحبة
##طالبات
ومدى
##وراء
نارية
قادم
انطلقت
وعلوم
##لئ
الجنائية
##يدس
ثلاثين
##طير
لنشر
الاغانى
العبا
##ضحى
واعلم
الملايين
النهر
بهما
عوامل
##TL
ورجال
اساسي
نعمتك
يتج
تفرض
ضاع
##0000
نتمنى
مخلص
المسافر
كيان
الاخلاص
ياكل
98
اكر
اذهب
الكور
رباح
##زيق
الجهد
حمدا
الانك
##تية
كواشا
مذكرات
قرابة
##افئ
العذاب
##بأ
بود
##نسى
الفحص
##ظاهرة
حملات
الجانبين
والأف
DV
##نسيه
حدثت
والشكاوي
بقتل
يراه
كسل
العقار
المفترض
بتخ
ماري
زكريا
Is
##هيري
الدموية
المواجهة
صحافي
وحشت
##سيكي
0555
كتابات
##اتذة
دمعه
##يتام
المصلحة
وخمس
البكاء
متحف
أتى
ازاله
لتعزيز
همك
الضغوط
الممثل
##خدمي
عبا
##ff
انحاء
فعال
##راي
##ساءل
زجاج
##هرجانات
المطاعم
الإحص
المحدودة
الجلوس
قديمة
##xx
ياربي
بولاية
الضحايا
يحسن
تقضي
أغاني
##واكه
##ly
محاكمة
##صيله
مفضلتي
إير
مبادئ
تجاهل
الانسحاب
والتاريخ
للقيام
اوباما
وصار
صحراء
تصميمي
لذي
##ams
أخصائي
وامن
LLC
سكانها
##طبخ
تحسب
سقطت
بعضا
سراح
المفضله
برمجة
get
تكفون
بالامس
##طيور
تندم
الحركات
ممثلة
كربلاء
غزه
القف
نوعا
أوت
تقسيم
كلو
##منع
شيف
للكتاب
نصوص
المتظاهرين
مناسبه
##دمان
و6
لسانه
##زوي
بالاعت
Be
Hot
##لدية
هنيئا
1999
والاموات
الفوائد
انسحاب
الفتاح
صوب
العو
ماسك
للانتخابات
السويسري
راسه
##كاسب
يجلس
يستهدف
نقيب
لوح
داخلية
تسمى
ودون
الجيد
##SS
الكفار
الاستع
أبى
##رقم
المراة
نات
حولها
الذكاء
موبايل
سنن
##یة
##قابة
المحاسبة
فست
صاحبة
افرح
الرشيد
بمجلس
رموز
78
##EL
##غرافية
محافظه
لبناني
جاني
صبرا
كريات
##ark
أرى
واللغ
وور
كوني
لوس
بالناس
سدي
قلوبكم
الرعب
77
كلامي
##ؤدي
المعايير
##43
##رشادات
##روا
لفريق
العظام
أهله
معتم
وصفه
أرمين
القطع
لوحد
##راخ
الهز
حتما
بتنفيذ
يفرض
قدمه
الاخري
دى
نصب
##وديوهات
##اريين
المصير
##ذكره
جاسم
دني
pdf
شاطر
للال
أحياء
العفش
اقصي
التحول
الثدي
والجوال
الأنظمة
بنجاح
الصينى
فسيح
إنا
تحدي
##وبع
المنوره
توري
ثالثة
الايه
صغيرا
الدعوات
التصنيف
وكلما
71
ابريل
والحديث
تمنيت
الصعبة
المنام
الترفيهي
##قلا
##orld
التفاوض
يتحول
##سيوي
الياسمين
بقط
المساحة
الميدا
اللائ
عثر
زفات
ومف
تخفيض
الكبد
الفكري
انفا
##p3
بكي
##كند
واجمل
الاكل
المزور
اهلك
تأجيل
وإد
الاسباب
راه
يمه
الاسهم
والموقع
##ريبي
الناتج
المتوقعة
للموقع
ليلي
الجار
##جزات
وجهات
لأم
حلمي
##وكول
##تهاد
ويقوم
الطه
هدم
##95
إسلامي
للحياه
##وائح
تتع
بندر
تتأ
افتخر
ولبنان
قويا
فوزه
##يهات
برفع
اتها
##واريز
تنزل
بنى
ادب
سلطات
حمي
الخلافات
اسوي
##صون
تختار
اللم
خفيف
ليسوا
يتخذ
ساعتين
مايكل
مئة
##خات
اتوقع
ويأتي
بلق
##قمار
ودر
استشهد
الحضارة
السرير
how
##راءات
الذاكرة
##وسا
فالك
باق
##cess
الأبحاث
نوح
الإنجليزي
##غام
عرضه
##وكم
وده
القطيف
وعش
سلمة
الكا
سرق
تثبيت
##ربها
مؤسس
أميركي
البطريرك
تنقل
فدي
مشر
بانور
أمي
وضعها
السياسيين
المزع
بمقر
النمل
أسلحة
فيا
أشياء
التحميل
صيف
كانك
مستعارة
دعوات
تغريدات
متوسطة
امريكي
News
##ئوية
كع
آخرون
##بله
سيء
غصب
مناسبات
حاضر
كيس
تكس
ممنوع
للمتصلين
##فعول
والمعلومات
الرغبة
تقويم
دروب
المخط
##شكال
الاستشارات
غريبة
بطرس
Ex
أصلا
ضباط
##زله
##ناي
تعارف
لمناقشة
##كسون
##وقعه
الاستي
##هدفت
ضحكه
الغرف
أسلوب
الجائزة
الريسيفرات
##ستغرام
##ياطي
ادوات
والترحيب
لتف
##صنة
للنظام
مقاعد
لنظام
1995
بحوث
الكف
بلجيكا
الهندسية
البوم
رواتب
##اليون
يروي
الحارث
ضربة
النعمه
الدرع
##ييل
##ظا
بينا
لقاءات
##ربوا
استراتيج
بجوار
سور
##جنات
شهرا
إبداع
لساني
بقيه
سعادتك
والسب
##لعن
اطراف
لوجه
##شتي
بنص
حصري
تعطيل
يسرق
بعرض
الكورية
الزينة
مناص
##قدت
##رحلات
المتأ
أسفل
الامت
تحوي
منق
قائم
الزبير
سودانيزا
كين
##بداعات
بيها
لأجهزة
حلي
قرى
جمعت
وأعضاء
بفارق
بحرية
الاوقات
##ايم
##طها
جوار
البولي
تما
وعاف
##نقل
##ازن
السخ
التمييز
بست
الأصدقاء
جنات
اعتذر
شمر
الكوري
معاهم
غرفه
ايار
الأجانب
أخرج
الإعت
احيان
Arabic
وأج
المؤقت
##وائف
نقلت
الجريدة
##سنين
ليد
واحسن
##ارن
عاق
بمركز
وسواء
التجديد
##witter
##ire
العصب
##ork
كلينتون
مفيدة
والشراء
أخت
اضطر
اقليم
اوجاع
فانك
وعشرين
وتوفي
يفرق
هاج
كمن
##لديك
سرير
المدرسي
يتعلم
ووجد
أمة
مجاهد
الصناعات
وقالوا
موتي
##احه
ينه
الالباني
المذهب
لقسم
##فاح
أجواء
تستاه
المستوطن
الأوراق
أغنية
واجمع
لكره
السهل
can
##جبه
##afe
##وخة
إيه
رادي
العماد
##متهم
الديموقراطي
الأسماك
عظيما
ثانوية
الكومبيوتر
##ريكات
بأم
مرد
المطب
ينفذ
حقائق
العروس
technology
يخلي
يغني
إخت
##ناقض
والاق
لنادي
##ost
يبارك
المبالغ
##ائنات
الزهور
سودانيزاونلاين
السعي
لاغ
الكرو
ولان
يلقي
تحديات
##tern
يبين
بزي
##ast
الفيفا
سودانيز
تحظى
الانضمام
##ons
والثالث
والاخت
سكنية
81
أفاد
العائلات
الوعد
اود
غيم
التشي
طاح
كوي
الدرد
رجعت
النتيجه
دست
طريقها
والكهرباء
الإسكان
Ac
يفر
حزنك
تدريبية
المؤشر
وحماية
ولها
مايت
##سيير
فائدة
مسافة
المشرق
سيدتي
المتعلق
140
طقس
املك
ممحونه
أسرار
غالبية
##كمله
تدين
احتفالات
##دونيسيا
موف
##هله
##يزه
الافكار
##حمود
والسياحة
تمارين
##نائس
والثلاث
Dreambox
الفرع
الأدوات
جريمه
##درك
جهازك
##كثره
##قاتها
كأنه
متصف
حسم
##زف
مزا
جيبوتي
تفتخر
##ضامن
بيم
مستعمل
وسع
عائله
وسيكون
توصيات
شرقي
والحوار
اجازه
احكام
المناهج
خالي
عزاء
1998
الفضائيات
زيارتك
خطف
الغائ
دل
للأعضاء
##نعه
ومهما
مشارك
والدفاع
طالع
حسبنا
الين
الكاثولي
فرعون
البغدادي
بالمعروف
القذافي
1996
تأسست
لعيون
شعبان
خسارة
فلت
##صنع
أحر
الايفون
##دهار
اقر
ويعد
الاخضر
##ky
حسبما
##فصال
##ئم
العوامل
كويتي
##قاوي
النقاشات
تاريخه
تقام
##خدمه
الزب
##sp
قرات
واخذ
اقتحام
المشرفين
وروسيا
سالب
عضوية
##ساحة
حاب
الحوت
عدل
جزا
قانوني
يبيع
وجعا
بدونك
جروب
##وافقة
اعداء
ولأن
كلمته
مباركه
##HP
الاندرويد
الابراج
وثبت
اقتراح
اسطول
شعرت
المسب
والسياسية
البطن
وتز
عابر
وحل
حدة
##مدينة
##طاق
وداعا
##كررة
##واكب
اشهار
البلدة
وسعاده
نونبر
سيطرة
ناشطون
فيهما
الانتصار
بيانا
ونش
##امنا
##for
الناج
##ويتش
##براط
النسخ
السجاد
جدران
بمبلغ
غضون
##ئاسي
ودول
ضخمة
العيب
##توث
ودا
إننا
متطلبات
لسنا
واكتب
##قاتي
##نجية
##لاش
يفض
أصدق
الضروري
انباء
بإس
عمن
أطباء
نغمات
رائد
##ain
وجيه
العليم
للمواطنين
عافيتك
السياره
المفض
##كمبيوتر
ومكان
الآلاف
بعيدة
##999
فعالية
##طفي
الحسيني
سدد
القهوه
وقطع
##ياحة
فأنت
إخراج
موارد
ويغفر
الهدي
توج
الوجوه
##ياف
ملتقي
ch
##جور
كميه
يتهم
اليكم
كولون
##كسار
القناه
##صيه
تدر
بلاش
##راكش
قيمته
الأجواء
وضعه
##عكس
๑۩۞۩
ابني
##ne
زاوية
الآسيوية
المهارات
وبعدين
والتصميم
الإطار
والديكور
تخزين
فران
ابنائ
ولغ
حبوب
##وثي
التوازن
الشوك
بتلك
واترك
أجد
SP
الايرانية
بعضنا
##anc
##لند
##شش
الاموال
##آء
لبحث
بصراحه
بالقانون
advanced
ورأى
الغالب
نهيان
##780
تنفذ
laz
##وانب
ماما
كويس
انتخ
0540
بالخارج
والاص
قابلة
وعب
##عارض
الليرة
##سكي
##ضمون
اتس
MP
صاف
يخسر
أيوب
عري
الره
بشرط
##روطيه
وكثير
روضه
المدونة
وطرق
##عمد
المسائل
تليف
أنصار
تياس
وانس
كوت
كورة
##ائرات
##زرعة
الاشتراكي
الانتها
##ئى
الحلف
العريفي
علمني
##طنه
الديك
##وفو
والمغرب
كد
##يرى
الترند
يعترف
61
يفترض
مثبت
للحين
الكسل
عامي
مفرو
##بوا
المادية
##اليين
تايوان
الراحة
صحتك
حزينه
##ls
والقلب
المتب
يدعون
##جله
##med
عيونه
ومق
بالحياه
أبلغ
فلماذا
تناسب
داعيا
المحترفين
أقوال
وناس
المحقق
##ساق
الإجتماعي
الوداع
##hone
اصابة
طاعتك
فاطمه
شاشات
قاضي
اعراض
التت
##جملة
ايجاد
مشروعات
AR
الاحيان
الفلم
لاند
تويت
re
##فره
شبك
أعوام
واجت
كليا
جبريل
السبيل
##قبة
##زيين
يور
المحيطة
السوهابي
قربك
الكندي
آراء
##ودها
الطائفية
##عتمد
##عتنا
والتجارة
همسه
المرحوم
##nline
واذكر
##ليفزيون
الغرض
ووفقا
أسرع
##رجة
ضعيفة
حاجز
البطالة
يمكنكم
الانباء
آنذاك
اصوات
لمه
حياتها
القوية
##جيا
حرارة
تسمي
صدى
الاتفاقية
أواخر
تهريب
لدول
منير
الراهن
الاستثمارية
الشيف
تعقد
دن
الوادي
افك
النسائي
مساحات
شيوخ
##لاما
يومنا
توقيف
A7
عيسي
سوفت
87
يميز
تسعة
يسيطر
##عكاس
لمشروع
رأسها
احتلال
بالدنيا
##حله
##ماته
تتمثل
وشي
##طبة
الراهنة
ورده
##عق
وارزقني
البه
يسبق
يأت
لقائه
العطور
طفلا
سلطنة
ويؤكد
##ايك
تتحقق
تدع
زعلان
هان
قلعة
والهر
عاصم
اسئلة
الهدايا
إيجابية
أحاديث
المشحونة
مزاد
جولد
وطننا
الورق
مبكر
CF
الشرع
اشك
##نيش
وتحسين
سرعه
عدت
المسيرة
الحقيقيه
##دمة
جات
##لمبية
##تمكن
ar
فنج
آيات
والدكتور
##رامية
غطاء
##موية
74
سرية
أعلاه
سالمين
السح
يوصل
##كانيات
لوجود
تتحول
لاسيما
اكسب
##هود
Sy
منصبه
##طالبة
##نادا
الاستر
##ump
موث
ابكي
أنج
##ضحيات
##سره
مرضي
تكاليف
وقول
يعادل
##اصه
القيادي
والهي
##حمام
##لذاكر
الذاكر
أرقام
الافتتاح
الاجن
علمه
حازم
وعاد
cont
بند
##ينهو
##الإ
دراسه
يوفنتوس
العملة
بقرار
والتطوير
##جوز
##وائع
مطير
##نتيني
مقار
##ical
##وريوس
أكواد
باشا
الموازنة
سارة
##روء
بكامل
سكت
رايك
الرائدة
82
والبعض
انخفض
خلايا
والري
الجيزة
وباقي
##ؤهم
استمتع
اقامة
التعديل
المعدة
توضح
دوت
المباني
لمتابعة
تلاقي
يقرر
الهرم
عرضها
بحثا
وعمر
فرحت
059
##لطان
القبور
نزول
روضة
الندوة
لينا
الفصائل
راع
البلوي
استكمال
بالتقسيط
العشرات
القوبع
علمتني
الراقي
##بطولة
الشراكة
قدرات
وشمال
الطفولة
محدوده
##لراق
يضيق
73
تعلمون
##ولكس
جوهر
الراق
##MA
شجره
لايت
أقصر
عشره
بالمش
دورها
##اهم
يتكون
المضافة
الفك
زلت
وأصبح
توس
استفتاء
##سنجر
مواجهه
التغريد
الوان
الخم
المذ
##طيح
المعاصرة
انترنت
وانشر
لليوم
ملكي
يوص
تتردد
املا
Play
##ord
جمل
المستخدمة
تسكن
انتو
بأعمال
العوده
##يفورنيا
تقيم
يخيب
##حيين
وضوح
إلكترونية
عزم
المصارف
أطلقت
يسمي
أصوات
##وادر
##خرجه
برلين
##لهما
أدب
##ND
الارشيف
بمحا
##لتا
باستثناء
الذاكره
يرحل
صلو
العلوي
حرا
والتب
مصلح
ويعمل
مؤكدة
الحجاب
البند
تكمن
110
CL
سرطان
يتس
بكون
المند
##ظروف
نيت
##ستيك
وتحول
لتحديد
##هك
يوح
مازالت
##qu
تحبون
تقدمه
اشفي
##بحر
##لمني
الفارس
المول
##جددة
##ana
ينظم
ابر
مزد
أحدهم
##ؤك
القضاة
بكرا
هلي
التحرك
رغب
ساكت
ننسي
تعام
تايجر
واعلن
قسي
##ميديا
المعاني
بإرسال
##يرين
79
الاتحادي
اليا
الجان
الإقتراحات
الفلاش
مبدع
๑۩۞۩๑
كيب
والأعمال
##واتي
مسلما
##ريغ
متابعيك
لاهل
البنفس
يحبه
الاردني
##لوقتي
الفوتوغ
ادرك
خريطة
مصيبه
واللج
##ريبية
تخفيف
الارج
ايديال
قدما
الشرطه
##غى
أثار
##لكي
واهم
##ell
ووصف
الإتحاد
الطويلة
السلة
التخصصات
لاعت
شكله
نوعها
##BD
بتاع
تلقائيا
الحذر
حفلات
##لكات
حوارات
الفرصه
مانع
الباطل
##عتهم
##راقبين
تسيطر
التشطيب
##وتين
غيابه
أمره
الدوم
الوطنيه
##سابق
الاحساء
ღღ
الاوضاع
اصاب
المدة
للعلوم
المخالفة
متعه
مرغ
الزوجة
ناقص
القادة
بلن
IP
جسده
عراقية
##طو
يضيف
والعرب
##هاي
تسوية
سرقة
مستشفيات
كاذ
أحلام
استضافة
##حح
##طراب
الأشهر
##عدى
واقف
بون
يعنى
الملكيه
ويبدو
الفقير
ماح
هيبه
الكمال
##ووون
نفسيه
المبوبة
##بتدئين
غذائية
تحل
وبخ
البحريني
##فتها
الحلال
ميان
بمعدل
لبنانية
##فورت
الحليم
اموات
الترشيح
برت
العسر
العاصمه
##أحمد
الغناء
يتذكر
الفرعية
القيادات
##تمين
المواهب
السباق
##tra
مسبقا
والعاب
##ثارة
##مرات
بدعوه
##ix
##ائقي
شاك
##لخص
تفضيل
بترجي
مضت
صهيون
تمهيدا
لاستخدام
وقلبي
سيادة
التوقعات
700
##لسل
لتصبح
اضافات
حظك
ينجح
مستقبلا
عجزت
التقويم
استمع
تظل
وعالم
شهود
وأهم
نسائية
تثق
##غرس
محدد
##قطاب
ضده
وتفض
شبيه
استضاف
والإعلام
لأكثر
الجوار
##علها
شفا
فرش
مسئولية
مجهول
شاني
اوز
##ونيسي
دقيق
لحركة
ليم
لإس
نبت
بكين
النوايا
الريف
هيف
##ارتي
##ree
##نغ
واسعد
المخصصة
تكبر
##يدين
آله
للأن
تتمني
صبحي
فشلت
وأنها
يحبون
وتذكر
الماجستير
الاستفتاء
الاماراتي
موجوده
استئناف
اجعلها
يقر
باقل
##ذين
يعجز
جمله
##قبض
مستقل
يقارب
##فيلم
ابلغ
شجرة
غبت
مكافحه
##طري
##ربك
ورز
طراز
ماوي
##خن
نفسا
##امنئي
الذوق
اتنا
المشا
للطيران
بالاج
المجاهدين
الدماء
والروح
لاتت
السناب
احص
خلفه
طاقم
##يعاب
وبشكل
مشاهير
شاي
عددهم
معاد
تغني
الحادي
تشاهد
المحطة
##ربيجان
بجمال
برصيد
Sec
الرصاص
سواه
اثي
##بنى
فضلك
الباق
##قور
آمنوا
الجفن
إلينا
ضيفني
##رامي
الكثيرين
##لوبا
بطاقه
الفخر
تعكس
##طاقة
السادة
حاص
مجانيه
hd
الاساسي
ليصل
الموه
الرتويت
##لوبه
فعند
92
استايل
##عاث
تات
انطلاقا
اذار
إيقاف
بنقل
##223
تخلص
الثابتة
يناقش
كاميرات
##رنا
وثقاف
اعمار
##شرا
##بيها
بدري
بكافة
لتصل
الأنت
انقطاع
طلبك
الخمسة
جرير
اقدم
لتوفير
##سمك
فاهم
##طأ
وحديث
##جازه
أصدقاء
وتوزيع
وينك
نصية
ثور
##ادثة
مرسيدس
روبر
##شاد
جثة
##قاوم
بتنظيم
البرتغال
##فها
بيف
الاصوات
وتدرب
##BC
رحمته
##ثبات
الدقيقه
##ثوذ
الاطلاع
ابوظبي
الذهبيه
اصلي
وأخيرا
الاستراتيجي
قولوا
استهدفت
المجلة
خسرت
المدي
##ترى
المتابعة
قديما
والرتويت
معمر
عملائ
اقترب
تدرس
##موح
شهيدا
السلامه
محاوله
##بابوي
قنب
##خدمين
اليسر
الانماء
وقلوب
أنتم
يحزن
##ظرة
الموحد
الشلهوب
##البه
كعب
المتوا
رخصة
##رابه
يلق
نيه
والنصف
الطفله
قدا
##وسه
##الدنيا
المدرسه
##الهم
القرآ
ابتعد
جوف
الغم
القرب
المنح
قريبة
تصنيع
الألف
##ؤلات
الشتا
سلع
الألغاز
يدا
مقبول
ذنوبي
بدو
متش
تشكيله
فسوف
البارد
ستن
##ais
##GN
مايف
لمصلحة
ضربه
اعتراض
كالت
الاقتراع
مدف
1990
المشي
والبحوث
فوت
بضم
مشاك
التجار
##ادور
قصور
البورصة
إحت
السحاب
إسلام
تجعلني
الأبواب
فضيلة
أصدرت
لأس
قرن
وتعد
الاتحادية
##ئنا
##لائه
الإسماعي
تحديدا
00962
ونور
##آم
وعيون
دان
##فالات
تنجح
الكوره
للشركة
##اللي
لتغ
##طورة
76
الموظف
##ادى
أحوال
السهم
تمنح
بواقع
اليهم
بلدنا
الصحافي
فقالوا
الكتروني
##ms
الفهم
جود
##وبرا
يدوم
##زامن
##ريز
بمسجلين
بوب
لى
مجز
السجود
والشركات
##واص
غرار
الردي
استخراج
الحمي
النقيب
iPhone
كني
المجوس
توقيت
افكر
الاحباب
##شرع
كرواتيا
للعلم
مسؤولين
##كنا
##ug
تتعامل
إنج
إعطاء
بفض
يظ
تدبير
غلاف
عطية
الإرهابي
خطب
محظ
جميعها
لعلي
الأست
عددها
تها
احترم
الاجانب
المظلوم
تظن
##حاث
باليوم
كوكو
ويغ
وكاله
سعادتي
العيسي
للذين
هيب
قومي
صانع
الجماعية
الثانوى
أفادت
اوقف
##واس
القرض
التقييم
##ant
مراجعات
شركاء
لوز
##رول
عمارة
بنز
و5
والإست
الدبلوماسيه
##IP
الاساسية
تتراوح
وتركيا
##يادية
فرجا
بيجي
##قيقا
نال
نعمة
موجه
الصدد
مقط
##MS
##ؤلؤ
##تال
اتعب
دستور
حكومه
أدخل
##فينا
قبور
سواريز
السلبية
كليات
خصائص
تفرق
ولدت
بغيت
الرحلة
كثرت
دلوقتي
الدبلوماسية
مواجهات
النفطية
والاستفسارات
نفيه
##ecial
الضباط
ساج
لاستقبال
بالعاصمة
للتعاون
والوف
تنطلق
المفقود
##ET
نيابة
عقله
لفتره
تروي
يكذب
قطار
per
بنج
وتنفيذ
وصرح
مناس
العاط
##وحد
##اخرة
المحلات
دماغ
والدم
والحي
اقسي
وإصابة
اخوه
مكونات
وعقبال
##نسيا
كانه
توم
تنص
##رونا
دق
الاسطوره
مادام
الاطباء
##وسيقى
الوظيف
إنهاء
##لمت
صادر
التقليدي
التحريض
مبني
دقايق
الصلي
##خوا
##فلونزا
يستغفرون
ريب
كوبا
يعكس
لعي
بهدوء
هيلا
طالت
نظرية
المنطق
##وليد
النهضه
القارة
##كاف
التلفزيونية
##راهية
130
تحولت
والثانية
متفرقة
توضيح
قهر
المنعم
##يتان
لعملاء
حنيفة
حسنا
##فافية
يدعى
التدريبات
للتف
محدود
ثواني
يتعامل
استعراض
مصمم
المساهمة
ينيك
عاده
افتتح
##عور
##كملها
مبسوط
ورقه
فوات
المحام
كليه
##558
##ولته
الكات
بتد
أكل
متعلق
الجملة
الخرج
##وثيق
العبي
صيني
لمحا
قريه
بترك
وحكم
##قرر
الأطباق
##وهرات
الكابتن
بذل
حبيبت
حدائق
افراح
المتمر
بمقدار
دكت
##صلاحات
تثير
تسليك
##هرام
وايران
ذكرته
بالمنت
معبر
التسلية
الكيميائية
##بوط
غف
يتوجب
تبع
زفاف
وجودها
مشاري
الاعلى
سمح
السلمي
ضيوف
جت
الكومي
بقت
##DF
المرتبطة
مذا
والمغ
عظ
اكواد
فورد
عقوبة
شاكر
اتكلم
انقلاب
يفع
##ناعات
بالآ
اخبر
##وفيتش
الجماعي
حكما
بأحد
المهمه
جزائري
##ect
الحمدالله
قتيلا
افعل
الدجاج
##جره
الصفر
ينتمي
##اعيات
رائحه
ووق
العماني
والكر
بقلبك
##بئ
الغائبات
إدراج
المكسيك
##انج
الثمان
البرايم
أود
للنشر
الشرعيه
كبرياء
الأسبق
مصورة
اقبل
الصفحات
للولا
تطيب
مدافع
إثبات
الحوي
القمح
ماش
طار
جراحه
الخبير
##رقص
وول
اقوال
متميزة
سيئه
مآ
إيم
التسامح
ثالثا
الهيئات
وإتاحة
الزراعي
##ace
أخبر
الإشتراك
صريح
شقيق
وخذ
بالمملكة
الكاميرا
##غفرين
نقي
البضائع
##edia
##73
جبهه
اغني
رود
المشروبات
تدوم
##عاطف
##موت
المثنى
امكان
يلم
عبارات
بانوراما
درعا
الجابر
##غاثة
##LL
والولايات
واضحه
المشاركه
النسبة
الفاش
الكبري
التعذيب
ودور
يتق
حلقه
الدير
العار
فون
mp3
ساف
المنع
mot
اماكن
والحكم
الروافض
بنيامين
اخواني
درر
##ستين
الآيات
سوني
لأسباب
قرأت
محي
##BOX
رحت
مشاركه
لاخر
ونظام
##ations
الإسبانية
خر
موجة
الدوليه
أظهر
الجمل
انضمام
أمريكية
الإب
##وديو
القريبة
##ore
السرية
الثالثه
والتم
مسكين
بالقران
الروضه
وعذاب
امورنا
وماذا
ألي
عشرا
ثنائي
##فتان
القصيد
الدب
##قناع
##شاق
تتابع
قضى
المناق
سدر
الرزاق
كاليفورنيا
استطعت
##عايش
التوعية
بالتالي
تربيه
الحريات
##EC
##سامة
مبك
الهاشتاق
للمحت
بانتظار
نزلاء
الدعوى
خدي
راديو
للطاقة
الأهلى
ميزان
بوق
والسعاده
لاخت
##جمه
##ادره
##كايات
الاجتماعى
جافا
المارك
الخصم
منقول
ومز
بداخلي
الأنترنت
بريدك
السباحة
الأصوات
والفنون
صراحه
##كز
قتله
بحسن
وهد
تركز
محاربة
ليلى
تحلي
##OM
حيوان
جح
والغاز
مكانك
لتحرير
مله
بسلام
كونج
فرقا
##تيز
مسلمين
لقطات
الاطراف
تقدمت
##الو
##ويف
ليصبح
خمسين
الوضوء
##صدارات
##يله
مينا
##سيكو
بقراءة
فوك
وافضل
طلبه
لقطه
وزاد
الطالبات
والبط
المهام
Dump
ولكني
اطيب
للرياض
وارج
##vel
##obile
##ذجا
الطهارة
الوهم
##ثوذكس
غانم
طموحات
العزاء
##روسوفت
##ابهة
##ثبيت
جنوبي
العراقيه
شارب
سمر
الارقام
الحجاز
وارزقنا
##IF
العال
ضغوط
هوي
الإساءة
يكسر
##الايت
##روعة
البغي
ماعرف
##سبين
سوداء
بريدة
##روبا
كتابا
للاهلي
الموسيقي
النجمة
بوز
##Tube
VU
قبلها
قطعه
##كشاف
الخريطة
##قبله
دكة
##يرية
ياك
ومما
غارات
باسمك
اضف
ساحل
##angu
هارون
أساسية
للوا
المختار
يتمني
التأكيد
الدواعش
لواء
##حمته
رايكم
انص
تعهد
المطالب
جند
حسان
الصاروخ
##يها
والنقاش
طاقة
للدراسات
ياش
وتبادل
##ear
Facebook
##ياسات
الاعداء
ومثل
بدقة
تدعي
الشريفة
تحتفل
المحاضرات
رجيم
مدح
##اهما
شرطه
مخلف
الرشد
مرضى
بصمت
1992
بحقوق
مساجد
الخال
اجتماعي
ويوجد
يزداد
ريش
يعوض
كاميرا
TV
##YR
##بوه
##وتنا
مفاتيح
المنقولة
متصدر
الجوز
##oh
وخلف
ربهم
دعوى
والعب
عربى
تبد
##نكر
المخلص
اثنان
عبير
##ans
والتغ
لبيع
اصابات
تأهيل
ومتابعة
أبحاث
السيح
لصوت
ماركينهو
انسانيه
عائشه
لعلم
خلفي
الفارق
وتقدير
عودته
يسوع
بقانون
ازالة
حكايات
فإنك
ويذكر
##صرا
وردت
اقتراحات
##طايا
استهلاك
th
ذمه
عشت
الموز
##احف
##سيخ
التفاعل
عقبال
انب
تقلب
الأصلية
عفو
وبالاس
##مائهم
##ساطير
فيجب
الاصل
التقاعد
بلاي
تضيق
التدبير
Th
##مومي
##كشف
##انهم
والتقدير
##وكيز
صلوات
واجر
شارون
صحفية
وتصفح
الافريقي
##ميمات
الاعتذار
بداخل
امتي
استهدف
امرك
حوض
وأق
توثيقية
صفا
الاني
لبيك
يناسب
رفا
بالمركز
تولى
##54
لاتنس
وجاءت
براف
اسف
انعقاد
روحه
مقدار
التقديم
يحتفل
الغيره
الخد
معروفة
ايلول
يرسل
##جزء
##ownl
مسئول
يبق
نفي
القنص
كبري
منزلك
##لتزم
المرجعية
تجربه
قير
تخضع
صحيحه
وتبقي
مشددا
لمجموعة
وقتا
حزني
بأكثر
تذكير
كوالتي
فضله
الكردية
المنوعة
بأنهم
تمكين
يشرح
يمني
بدورها
مساعدات
الجوائز
الحلقه
والابتعاد
النحل
الاخطاء
لكافة
الثلج
##ظيفي
وبالن
آمنة
التمتع
تزايد
عثيمين
بكلية
والاقتصاد
والانحراف
السيدات
زوجه
فكم
السينمائي
حلق
نري
نسائي
التطرف
##رحة
مكانا
الاخوه
الثقيلة
قطاعات
البيئية
##ووول
العقرب
الاقدار
وبأقل
والسبب
##لمون
يكثر
أبد
ولاقوه
الصفات
الحية
بنية
محاضرة
الطيار
محاكم
المعلن
تير
خاب
التاي
التلاميذ
تتيح
مازن
لصح
##الما
متخ
##غاز
عقار
والحق
البو
والشخص
جدار
للحوار
لزيادة
##سيوط
زود
##بادرة
معروض
##ownload
ظنك
حبايبي
فئات
الفحم
ظالم
والشوق
البوح
مراعاة
موقعها
أظهرت
والدراسات
مكن
ستاراك
3D
تيميه
GX
العظمى
الجع
تستفيد
IS
أسود
دامب
عالميه
النع
##DL
باللون
ديار
تويوتا
يساهم
##اهية
والعمرة
عملك
صلاته
لايمكن
المعلومة
يرتفع
لأننا
والاهلي
والعن
وصيانة
الشا
الديون
الفيزيائية
##فاج
##ولاته
الناخبين
##UR
##ورون
والقي
##وارج
الجولان
وفج
نيب
الأفريقية
العاجل
اليهودية
جواد
رغبات
##ائرية
يحول
وحدث
جفاف
نعي
آليات
ليو
لحساب
تهنئة
استقال
لمجرد
الشريط
المتك
ايات
القهوة
##صرون
متج
قطرات
وحزب
مظهر
ومجلس
##مازيغ
اختيارك
عارفه
##لاتر
مقاطعه
ميانمار
المستقبلية
الوالد
أداة
ترحيب
عبادة
شملت
والما
التحديث
والتواصل
##للفظ
اكلات
سالت
تنافس
و3
بالنظر
اللفظ
البشريه
المشركين
الرسل
##سيوم
سنقوم
##IT
##ومن
احوال
دريم
نافعا
محركات
بالتنسيق
المصلي
الشهاده
ارتكب
دولت
السام
لكنني
سعودية
نظافة
الكلى
المقه
موضة
##غش
الطريقه
تغلب
بنين
الحليب
##فراد
##لاتي
Phot
##نيان
الجويه
قطري
رحلت
النفايات
الجهل
##شهار
نشاطات
ذم
الاخباريه
الصدور
##ورغ
راحة
صالة
انز
أهلها
القطر
التعازي
##لروب
ككل
فتحي
ببساطة
الروب
حملت
يحمي
فوري
صادقه
واجهت
امرنا
بدع
##سبان
كلكم
ووقف
ارواحنا
محترف
وأخرى
الإستفسارات
أيمن
اسرائيلي
تصويري
ازداد
قمنا
التعديلات
اعلى
الكتابه
متصل
واذ
ايامنا
##مانة
أرباح
1967
الثبات
##اليم
العلامات
تمتد
الطبيه
ترف
الشرح
هالح
الأنصاري
الأمان
بوضوح
وسأ
شهاد
الدوائر
##تهيه
##يتو
مجتمعنا
نية
وبات
أنط
الفائزين
##action
##ضايق
##نكبوت
##افظه
تحدثت
البوابة
وحنا
النازحين
فكري
تشاء
للقانون
##وكالة
##ثين
شرعي
اولئك
المباحث
##وصول
رفيع
هدية
الفلبينمدينة
وون
فل
هدى
بافضل
اذك
يخضع
تنفع
ركز
تربي
##سيكية
بعثة
بعينك
##رئيس
مرئيات
بعملية
PL
لاحق
الفيسبوك
مناهج
فحل
أخذت
المتحركة
تابعونا
الاحاديث
الشوا
للمنا
الابواب
سيرته
المرات
شهاب
يحافظ
عنف
وطلبات
الشرط
ماخ
ديننا
الشيب
##أم
محامي
يردد
المقررة
##ائيل
للشؤون
بالدر
يالغ
الاسواق
بامت
الازياء
عينيه
العظ
اهت
##riv
اماني
##ييس
النادى
##فيلد
غاض
##اضى
العمري
طائف
كاد
طالبا
للشر
اربعه
97
ميم
##طنوخ
حريه
والتد
الخليفة
تنفيذها
هذين
##تيبات
وكالات
يقولك
الرئاسي
الصلبة
##صرين
المركبات
يفوق
App
عجيب
##AB
ناع
مؤشرات
وأبي
للجنه
رضوان
نظري
الختام
المعاصر
ذاكرة
##بابات
يكمل
تاريخي
كليبات
والديم
##قاس
مفاهيم
اشتباكات
190
##لوش
اصغر
الغذائي
مثلها
ظبي
الادبي
##يزان
مرارا
الإشراف
البيلا
السفينة
الامنيه
يحارب
يدرس
عدوان
الفيم
فيرج
العطر
وجهت
شكري
سيئة
تعليمات
سوز
صلاحيات
##ظهور
متصفح
ممد
انضم
الانفجار
المكاتب
باعتبارها
180
مشج
وانصرهم
الرغ
بيقول
جنبلاط
يتسبب
مالم
##حس
دامت
اهلنا
##ber
##مالية
special
هبوط
##ازي
تكسر
للوز
##IC
##بتدائي
الصلوات
العصور
احرص
والهم
Online
المزاج
لطلاب
تقوله
##ائده
1997
##واط
واثق
اظن
الدرجات
السريعة
##ary
جوانب
جمالك
للخدمات
وابتسم
الكرب
##وتكم
شفي
كانا
بالشكل
أيا
##ذنوب
تتوفر
##US
سخطك
##ماوي
##ستن
والحد
يستر
تعشق
##سيج
قدرها
تطرح
المفوضية
المعاملات
##فوذ
وسلام
اخرين
سافر
شخصي
سنتر
دونك
نفط
الفصيح
بكاء
استع
الثوار
الجدار
فيتامين
اصبر
المسرحية
اختصار
وخرج
انتقد
بالموا
غوار
شعوري
تفاصي
بفت
مصم
تامل
أركان
##دك
المياة
كافه
المبيعات
##وابه
##صريه
شتى
العنايه
الافتراضي
اروح
مجري
المعن
وتنظيم
##ثني
والنجاح
ووفق
لزم
يكبر
بيكون
##ريتريا
##صرنا
##قطت
اصدر
الفقد
الرحمة
يمكنها
يتعين
والمحطات
ولكنهم
ودفع
مسرحية
التعرض
الجراحة
فرانك
مشترين
التقي
وتقوم
بامكان
الفاع
اسهل
الغائب
فأنا
بحياتي
ومط
وصلنا
معارضة
والطف
إرهابية
##سمها
المستفيد
##ويني
خمسه
صعود
للكم
ترتفع
عناوين
الكثيرة
الابر
التموين
الكاس
وحز
##نيني
تشتمل
##econd
##التي
طفلك
مطابخ
يتخ
تيسير
عنيزة
الرض
بمرض
حزم
الفردية
افع
قديمه
ومث
التفتيش
ويمكنك
واليمن
##طوطات
الشجر
##la
مكث
بالفر
تصيب
مظاهر
فوجد
اخذت
وعين
الطير
هيد
واتساب05
جمعيه
صابر
المفس
الاثر
سألت
وأص
اشترك
يبتسم
نظمت
الستر
##وازي
##يشن
والشت
الأخطاء
##روفي
##ساسة
مساحه
حطت
للأشخاص
القاتل
الخاطر
ينتج
اسطح
المطلق
جعلني
اعي
Black
استلام
أبنائ
الإماراتي
رجالي
صنعت
مشه
الغيم
org
##لانه
بالدوري
الإتصالات
##98
صوتها
خاطئة
ورك
##ثيف
يوقع
الصراحه
ومؤسسات
وبشر
الحارة
فربما
للتجارة
المستح
##سمات
الدولا
##ائما
للدكتور
##هوله
اسامه
تنتج
علمنا
الابن
الشهادات
الخبي
##ism
فترات
بلوك
ناه
##يدون
عوف
لقا
ملكا
YouTube
جعلها
بعدي
ملخص
النادرة
الأناشيد
ultra
دبلوماسي
تجرح
العملي
والإد
قيامك
للتخلص
فاضل
وتلك
بيريز
رحمك
1991
لايران
واياكم
وأعمال
أمثال
الكو
معاناة
بالاستغفار
عقيل
##فاءات
استشارات
تعط
الفوضى
تأشيرة
بالليل
ديون
##كاليف
إحص
وتوجه
ينصح
##ادق
الشرب
وتحديدا
هوامير
بالعم
والكثير
السعد
الضرورية
الشرا
لتد
قدرت
تساهم
##KK
الشاح
والمالية
تركيز
صالون
الميكاني
مقعد
عيا
وتكنولوجيا
تصريف
السابقين
يستطيعون
##ضحية
يحتمل
##icro
مرمى
الباحة
##سكري
فغ
أصاب
وبهذا
العنكبوت
يقلل
##نيفات
نشعر
ياريت
##old
##ساسه
المحتاج
بلع
قادرا
تحيا
القوافي
مستعد
بالسر
النقدية
الضرر
Prem
مخاوف
جف
يبر
نظرت
لترك
الباحثون
سول
القاس
الحضر
للسلام
الصيدلة
التنافس
##شيما
الجزائريين
بلاغ
إنفصال
آفاق
بائعين
تفاهم
النصراوي
منشن
خذني
اكتشفت
مشاعرك
سياتي
مبينا
لمسات
أعت
درو
ليتك
US
##ren
النظافة
الصحيحه
ونست
قضائية
يازين
دوار
الوفاق
الموسيقية
##io
##اراتي
تراك
بعيني
ps
دفعه
ودعت
الأجنبي
لنفسي
متصفحك
المغتربين
للشركات
بيدي
المكونات
ونب
تخدم
بإنشاء
المبنى
اتهام
بكلام
حصيلة
ووض
أصحابه
##صان
كبرت
ترين
ادي
##ورتي
والمنطقة
خم
##فرغ
ترسل
ملحوظ
ويرى
الغفور
اصابه
أند
extr
##cam
يومية
تسبيح
##ماط
يابو
الاتفا
بلاء
يشتري
شوقا
الجوله
بموقع
تحق
تذكرت
عبدالج
نظير
مسؤولون
##تكار
استطلاع
##ult
الواتس
##قالي
رحاب
أمني
##ودو
القياس
فلاح
بوقف
آلم
اليهودي
التركيه
استراليا
الآتي
ماكنت
الخدمه
قح
المذكر
النقص
الخمر
##ولز
الحرص
الإجابة
الضخ
المكي
الزائد
سوريه
هداف
##كرام
##همال
وفولورز
السفن
وجواب
فرصتك
موقعه
ومسا
قياده
الفلوجه
جثمان
وبالم
قوائم
##ائره
لتبادل
##مالة
خرب
موافق
حصر
الفيمتو
طاقه
المتضر
القشره
حقل
تهد
عذرا
الابد
96
##فاتر
ينادي
##قوف
وفرعية
تشتاق
الفتنه
ساند
الأسرية
القرنيه
سويد
PC
##عتكم
طيلة
ورزقا
##ليمي
بسمه
ناط
##كتك
تلفزي
ماعند
الوثي
##زوق
##ودعك
الاطلاق
الأند
##مامة
الزهراني
افا
Open
شباك
دراما
إك
والنصر
برلم
##قبول
##رافقه
والمسلسلات
الصفوف
يخالف
##تة
جالس
الطباعة
والشي
رؤيه
وتنمية
وبدأت
الالكترونيه
محاور
زعماء
##وظفين
حبايب
بتحقيق
الجنون
نظيفة
واشف
جرا
فاضي
safe
السياسى
ابها
الدائمة
اعماق
تزداد
موسيقي
الريان
أنزل
##RD
اوف
##راكم
الأئمة
وتعمل
للنادي
GMT
##IS
تفك
ادناه
يسرا
ماركا
الكبيره
ارتباط
الأقرب
المستمرة
ترددات
وأخبار
تورس
##خور
همسات
والدنيا
##OL
القابضة
##وبى
##طوي
##ارتين
والقد
ويز
##IM
وخدمات
##ideo
عبدالح
##اناة
اقصر
الصدقه
التصريحات
الحكمه
##واعه
يستفيد
##فلي
الميليشيات
##يهما
ولذا
##ليغ
SE
الأدنى
##زعه
الابتدائى
الاجتماعيه
المعروض
باول
تود
ماكو
##التزام
الحقد
Games
##خلة
جى
specialist
بجان
الحبوب
##osecond
STAR
وتشكر
المخروطيه
تلبية
surg
بقلمي
التوبه
##قدين
مبدا
لقوله
اشرف
الاسره
شعري
##روسية
الغرائب
والتك
##اموس
رعب
##يقاف
##راقه
extraction
العبور
النقطة
للظ
دعما
وإع
امتلك
معجم
كركوك
femtosecond
إرادة
يفعله
##اييل
بعق
سنغافورة
تغلق
العشاق
حقيبة
الروحانية
دورية
وتحر
##ريطانيا
الاستماع
البكالوريا
للاج
لزوج
والدته
عنان
##زما
كردستان
بالنفس
الأوز
##بيبه
##وقا
سهله
##رونج
اللاذ
##اوب
بالمت
اخواننا
يقوله
مصدا
##هائي
للجوال
ذكرنا
##واعها
1512
بشرية
ردي
مقيم
ابوك
غسان
تفاع
بالو
##دمت
جرو
يكلف
استبدال
باعتباره
زا
للبنان
عندكم
للشعر
جنرال
الأي
##هايه
##راهم
##طوا
تباد
##شرطة
يومئذ
عسكريا
شاع
واعد
##درب
لمدينة
الحلقات
##رافة
قيوم
يمل
وختم
علاقاتها
حمامات
صيغة
المليشيات
وياك
الحادية
##خسر
##فقت
انعم
والتدريب
اناشيد
طرفه
لاص
الارتفاع
ومعه
مشجع
انتهاك
مصور
سوال
الجدل
البير
مزيدا
والطالبات
نقلا
مبكرا
دبلي
وضح
شدد
مونديال
##ملكه
أردت
وخلق
لتعليم
أرب
##MK
##وعيه
العلو
القدره
المجرم
اللحم
ياالله
للكمبيوتر
##برج
أخري
##فردات
##ئس
غلب
En
يجبر
الكافر
مقلب
##جيم
##ZN
ادعوا
الإنجاز
©¤
الشعار
طق
نجمه
معز
لتواصل
بتعطيل
مبرر
ووز
المغاربة
##sh
يمس
برقم
اسب
المفضلة
يهد
اطول
انتوا
مرضانا
اقام
فصول
Ab
الإرهابيين
براس
اتم
ظلما
للعراق
والعدالة
يحذر
زعم
وراحه
وانك
تستقبل
أوقات
يحاولون
الباقيات
تكسب
ابنته
بنعم
للدول
##اريكا
متمر
ولنا
حافلة
بارب
##صية
زعل
تصدير
التحقق
أجن
ودين
بالصد
الشتويه
البؤ
مواطنين
الفاضل
ويحفظ
أقيم
مصانع
المضي
عصير
##وتة
افعال
##لاها
الأربع
شخصين
الفتنة
ثلاجات
##رتين
مكانها
أسترالي
الأحلام
وارتفاع
الشغل
طموح
معرفه
صوتا
قه
وضم
حرس
##رقى
##كتشف
شوك
يحترم
ببرنامج
أعماله
##لوتي
والنفس
##OK
ذنوبك
##وميه
هيون
هوب
الارهابيه
السادات
القصايد
الشقيق
الثوب
الاعدام
النفاق
طائفة
##ath
الانتر
الأكل
فرنس
أخطاء
للمجتمع
القتلى
ماجستير
##ليين
##غناء
مكانة
عرضا
##سيد
##اريون
الروحاني
عارفين
اعفاء
ايرانيه
منفذ
الصداقة
vs
والحض
جرين
##اعدي
تطورات
جنيها
الزر
مسائل
الشريك
الشائعة
عك
للفت
وقامت
صناديق
##قضي
أمانة
ونج
بمص
فاب
يستعمل
##لراف
انصار
رويال
إنسانية
SD
##ae
##متنا
##بيبي
الراف
المحذوفات
وجبة
طنطا
الثلاثي
##حاح
بالعربي
التويتر
بحجة
##لمب
الطاهر
إحياء
ولادة
حراج
الضيوف
خات
المبعوث
##لدة
يكفيك
غزل
هونج
الالمانية
المعدنية
##نيل
وفرنسا
جنسية
##اسل
##كرانية
البص
الوارد
##سيفر
الكونغرس
حلها
ادى
للخروج
بالما
ذكاء
الكبر
يتي
حاصل
أكاديمية
##اخستان
الانجليزيه
تستعد
قبض
والشعراء
net
وكأنه
أسوأ
ويقدم
فإننا
الجوانب
هاجر
##زمه
مخرجا
المالديف
والتراث
الصواب
##120
صغ
الباقر
احبها
##كيه
مغلقة
الخسائر
الترج
تسهيل
وفوق
المنصورة
وافقت
شعره
الدعاية
فذكر
time
نفع
معاها
##ابون
دياب
والعين
البدراني
تشتري
مرتبطة
##ادها
المحرم
الدراجات
صناعه
##جيرات
##نجليزية
والقصص
البحرينية
كافي
##ايا
قباني
رجوع
يرضيك
ومضه
المبدع
شيعه
##وراة
وبص
يستطع
ذر
والاجن
##ورونا
والأجهزة
زمي
غرق
ألوان
سيده
نسبيا
البرتغالي
لمساعدة
عطلة
البرج
حكومي
##هتمام
وحر
CH
ميزة
ابتسامتك
الموسوعة
محبوب
ثابتة
يأكل
القطار
كلك
والتعارف
##يداد
تسريحات
تونسي
ضيفه
إسرائيلية
لعلها
¤©
بحم
الكني
الوسي
دفاعا
بورسعيد
##صفة
ذل
الجدي
تقني
لدرجة
Su
ولاي
عموم
الانجاز
الاحص
حلمك
للمنتخب
##موش
الماك
إثارة
الترويج
##مراني
ذنبا
بكالوريا
ختم
والجيش
عقيدة
شيعي
##لدون
مسن
##غرافي
طور
تمث
تسمية
لاكثر
اراك
لجهة
صالحا
نان
طالبات
القراءه
Hotels
الأوقات
الصهيونية
يكرم
##وانة
كلن
بمشي
ذاتك
انصرهم
الصلة
أقيمت
روائع
دفعة
الضوئي
يرتبط
94
تمس
##واجهه
خفيفة
شبكه
مدع
##مثلة
المعادن
##امعه
تاكل
الخيرات
##قتصاديه
##جهيزات
سبعين
ينتقد
المذه
الرقية
توقي
شفاع
##ديمه
المغام
ثر
تجدد
##327
اللحوم
##رزاق
يجعله
عرضت
تنفس
##هداءات
##ZD
أعلام
##زازي
صورا
الروسيه
الأشغال
بأسعار
متكاملة
حصرية
تعرفه
##راقبه
طير
بكلمات
لتغيير
يطالبون
والعلاقات
التصدي
تمديد
تشلسي
يدها
دافع
91
##اليوم
##ازر
##ram
##سرية
فبعد
الليث
##لاحقة
نطق
تعداد
جروح
اوس
مشاركته
##غمات
بنو
تغطي
الحالى
بجائزة
عيناك
للمره
##int
خطرا
عربيا
نموذجا
إسقاط
مرافق
كيني
تضرب
##جف
ريفاس
سلك
البس
وعلومه
الأساتذة
##ائعات
##طرق
لمحمد
##ضرات
ينطق
الكهربائي
حزنا
##تهاء
وصدق
شيخنا
تحترم
يكفيني
بضع
##outube
الأرقام
93
مسيرته
صدقت
العبرية
الحساسية
تصفيات
للتدريب
##اطا
وافتح
بإعادة
##وزات
للفوز
اختطاف
حبس
##223558
الاختصاص
قولهم
##وليات
وصوله
والهرسك
امشي
ابنها
واتساب0566
واتساب0566223558
##ener
ولدي
يخوض
بنادي
الرافضه
بمكان
##▬▬▬▬▬▬▬▬
شوفوا
نمط
الاسئله
##ere
كفاءة
##يتش
عفيف
مهاجمة
المرئية
المخالفات
المهملات
وضمان
ايامي
نصراوي
تستطع
لزيارة
Qu
النظرية
##سمية
بالشفاء
##احية
الضعيف
تستضيف
اهدي
أحمر
##الميه
##ريخ
يود
تطهير
الناشر
خاصا
فعلي
فقام
الممن
تجبر
لمنظمة
المطلب
سيارته
استيراد
اعوام
الاحزان
أكون
والفن
الاسكندرية
##يتال
##ZS
##وتات
##osh
##58
تتكون
حقها
1993
ظلت
بنتيجة
لاصحاب
##389
عكاظ
##رحي
سكاى
##قدسات
##فاذ
وتعلم
##شكلة
تره
أشارت
ترخيص
المسافة
المطالبة
للولايات
الإسلامى
المخصص
منقولة
نظارات
لآخر
سلي
##المت
ثقيلتان
دعاه
ديا
##اليك
يتفق
بخدمة
تعليميه
العثماني
يغلق
منظر
طابع
فالع
نتحدث
الفوري
حداد
المدافع
##تيبة
##مها
##بده
##قيها
فجاء
الناف
الفتاوى
مميزات
حكاية
حبل
##سطه
والدول
##غله
المتحف
التوافق
موحد
##كوني
ميليشيات
تتخ
وتجاوز
##وقراطية
علاقتك
تحض
##IGER
كانو
##دنا
المعارف
حاط
للأمن
وعملا
مؤلمه
نافذة
محدث
بعب
لكنك
والاعلام
##eg
مواهب
Twitter
شعبه
حبيبه
##ألك
ليها
تامة
جماعي
الانش
رائحة
الثور
تدريجيا
وضيق
##59
حادثة
ومعلومات
قدمها
داء
المخلوع
والأدب
##ION
شاركوا
سوالف
المنقول
كوره
والرا
نائبا
##افظات
الائتلاف
المادي
فتن
تتحرك
بالجامعة
تزويد
##ولكم
تقال
علامه
احاول
زهير
ارضي
بتشكيل
خفيفتان
العقاب
للدخول
ويزيد
##لسوف
يهمني
التوبة
##اان
بالطائف
أليس
سواتر
لقلبي
ترس
يااارب
ومركز
الاير
##رائية
انور
##زاني
ارم
والعشرون
##قترحات
##ويضات
استعم
وفدا
##فاهم
##سيطرة
أهمها
بولندا
والحكومة
محاسبة
هائلة
تساوي
##ضرب
الدنمارك
العذبة
ترشيح
نبيك
جلي
##لونه
إشراف
للمخ
##غيره
ثقيل
##رائد
الصحفية
المسح
المحمولة
##ونز
والدر
ومسؤ
##شرنا
يحفظك
قحبه
المساواة
لمشاهدة
اسك
##ائلا
##فاؤل
تحذر
السلب
التخرج
وكانوا
بالبريد
شىء
بينكم
TIGER
بشي
مانات
وكفي
قاع
لحفظ
أزهر
##que
ملاب
##ؤوس
مركب
الصابرين
النيران
تربط
المؤس
مستخدم
ظني
بلقب
عروس
فلق
تتقدم
##رفون
شتاء
##ديرية
##وائج
بيتا
الطرقات
يملكون
عايزه
يدر
بزاف
##ادف
والتر
الأستر
المرصد
فحوصات
واستمر
استثمارات
##ناث
السميع
وطنه
أسلم
##للط
فتاوى
عافني
واستفسارات
بركات
##لائل
عاشوراء
##اندة
إزاء
ضخم
الوها
مشي
الانتباه
الشياطين
جذب
ألق
أوائل
المغرد
فرحان
الكونغو
اساء
سلبا
##فاعي
##ung
نملك
ومب
##وبل
تخطي
الوثيقة
اياك
لمعالجة
المبادئ
عفوا
##غيم
والصناعة
##ويح
صحف
1980
ركعتين
##ذوق
تواضع
لثلاث
احدكم
##وارب
والفنية
الهيئه
لمي
الانتخاب
الوجبات
##وشن
غايه
لإجراء
والهند
##افيا
الامنيات
لغرض
سيح
والحفاظ
انقاذ
وفالك
##يتم
البيلاروسي
المنافقين
مايكروسوفت
المصرفية
اعطاء
والحصول
الطيبين
الهن
الاسكان
مغفره
فقيرا
التمارين
نفى
##♥ღ
الملاحظات
##اكه
متزوج
##لسة
عظيمة
المسك
بامر
كثيرون
عليم
ثياب
ميزانية
جيف
الأزمات
سيئ
خالق
إيطالي
##ريمة
##يدز
وجراحة
الموص
يتصل
ممثلا
تشخيص
يناشد
هيثم
وقب
ماده
الصادرات
المقترحات
المحدد
تعويض
للتحقيق
تتعلم
تابعوا
الآباء
##فورد
الامة
وتفضيلات
##نامية
الشات
عقوبه
الاتهامات
الجالية
المير
التخلي
العاشق
##وكيو
استخدامه
سفينة
تتعب
رآ
وقوات
تأجير
الحديدية
اوسع
ضريبة
احزان
يكاد
مشغول
للطب
هولي
بأمر
والآخر
منسق
Islam
الأوقاف
الأسرى
##282
العسكريين
استنادا
##ربيا
##قصاء
##الوا
ليبي
سلعة
##رموت
##يمبابوي
مولاي
دايو
##ale
##نجاح
المدا
للاعت
تذكره
جمالها
لباس
بلادهم
ضيقه
وعليك
سيطر
اسلاميات
دبليو
##se
أدرك
والمساء
شموخ
بشان
نفسية
والسكري
وتأتي
بدت
بركه
وقفة
شدة
البنا
العزل
حجاب
اليدين
الأهم
بالقط
يستعد
كارلوس
بسوء
نزع
التسليم
القصير
##هيلات
ذمة
##اهن
الرقمي
السويدي
أير
حث
ولكننا
الرياضات
حرج
ذكي
##فارقة
ومغ
ابنة
هيكل
العميق
فماذا
##سمنت
نادرة
عفوك
مورينيو
واول
بوروندي
##ريفيا
دونه
برغم
الإبتدائية
350
نضع
##فضه
زحلة
فجأة
الزعماء
للاعبين
##شغل
الجناح
العلمانية
##ادثه
اذاكر
الدقيق
التحدث
أبعد
أخلاق
والإع
خبي
إل
##اربين
ثلاثية
والصبر
Mobile
بالتع
التهديد
##اشا
##المه
انعدام
جولي
يشترط
لأغراض
فأما
يقام
النصي
الاسئلة
انتقلت
مفتي
##AH
الطوا
للمه
تأييد
يمكنهم
مشيط
السيادة
وبقي
كتائب
لأبي
يفتتح
الجرافيكس
دما
##صالحة
##ناده
الشماليه
##ics
##مهات
لوج
اجم
الابتعاد
Tr
المقترحة
عتاب
Sc
ودخل
والسم
المخطط
المهد
للسيدات
جوالات
الطائفة
الإذاعة
مزاجك
هارد
تجاوزت
حضورك
قتلى
الدف
تعي
وسعه
الزهري
مزارع
ابداعات
##شيوس
##بايلات
شعارات
اكمل
يحد
اميركا
حقد
ثبات
عماني
##غفرك
الاحمد
يتزوج
ويجعل
##صص
الشعبيه
##erv
التصعيد
اليمنيه
##فيري
تقصف
الجندي
##اعيد
خبره
##وشة
الستالايت
نقدر
التلا
إكس
احسنت
##وهاب
أكمل
منغولي
وتعليم
تطمئن
##وتهم
إعت
ملعقة
##ونيسية
مبي
1989
محبة
الكتبي
فديت
المعطيات
البنفسجية
الرساله
لاتس
وارحمني
##118
المخيم
##خلاص
##ائريه
مورين
مراقب
حبيبتان
طباعة
اغار
##قطه
اميره
الولاء
الأعم
##ساعده
ضمنية
##طفئ
الحسد
فذلك
للإيجار
باغ
##روان
بالقلب
المتس
الشيعية
مرتبة
رابطه
##أسم
إقرار
نين
##بيقي
الاستح
النداء
والمقا
يمسك
رعد
وفرح
##تار
##بكي
##ink
اجعله
أعرب
للغه
بابت
نمير
احلامي
سمارت
وايد
وارد
ارتداء
ارهابيه
##دمه
يعزز
ارحل
##ظري
بكيت
الإبتدائي
الشوري
غار
أساليب
والاجتماعي
##ناش
1968
الذكي
العاز
##76
##قصير
##صارى
ورعان
بصري
الجوه
جلدر
فرنسية
قرعه
خاضعة
والإسلامية
##7770
##ايها
معاق
الوزارات
وغدا
الصلب
كق
أوجه
المطاف
أفريفيا
النشاطات
والرج
امثال
برابط
الاذان
يتواجد
بحياتك
لجلب
لاتب
الغاف
لاا
##فاقية
وسائر
والصلاه
الأرجنتين
الجمارك
كنزه
نفسيا
##منون
توازن
الارواح
توقفت
##نازير
##NG
مهتم
الفرات
درع
نفذت
والمراد
##وابت
سجون
قومه
المستوي
ولهم
الوريد
ووسائل
تغي
##وشي
الثروة
وردا
الصفوي
والجمع
الصيفية
حقيق
الإقليم
فرنجية
##ail
صوتية
صورته
وبإ
جيمس
شينخوا
Un
السلا
CNH
بطريق
يافا
##شان
##لمانيا
جامعات
دقة
المعسكر
PKG
صناع
تراكم
يسخر
منهو
الانتخابي
لذوي
ظاهره
##قاليم
##لخصات
##المة
يتوجه
##2010
الركاب
احسان
جمالا
داخله
لامن
مجاري
معاليه
أساسا
طيار
الدوريات
وقفه
فخامه
Am
هايتي
##جابي
##ددين
لجل
أنيدرا
##روش
مخصصة
يمسي
انصح
ممثلي
##NT
##تناع
##ومك
مواطني
وتقد
##سمت
الزعل
##بعات
الفيروسات
وعجائب
بالجنه
##وسيع
جورجيا
حشد
مؤلف
بيحب
سبام
##بغاء
الشاطئ
##يعاد
السلو
السنية
170
ادعي
جولات
##برغ
اجابه
التسعين
##جهد
لحظ
توبه
حضرت
اللائحة
ضرر
ناظر
إقام
ظاه
وشكر
ارك
يستحقون
ينهي
نطلب
للامم
خلافا
##ثلا
بقطر
الحاض
الدورى
اللط
المطعم
هالك
للاخ
لأصحاب
ماض
شقه
##عني
متق
##زيه
الوفاة
كولومبيا
متابعيني
مستمره
وللا
تفتيش
يعتقدون
يشاهد
##جرى
تفاعل
انساني
##أته
ويعود
المدرج
خيالي
رابع
##لجا
وزوجته
هه
ساكن
القمه
كمب
مشهور
وأمر
مساهمة
##اهات
رين
##ائفة
##ناقش
الستين
التسوية
##روفا
اوص
الجبيل
وملفات
##اجرة
##لاقا
##سبت
حصد
يرحمك
الزاوية
للتج
محليا
كسارة
مغربية
الإعاقة
عاجلا
باقة
تحياتي
شركتنا
اسد
بهدفين
El
كرات
القائل
الفؤاد
جدوى
بؤ
شهري
يقدمها
وكف
##رافات
قائما
الحكماء
الدكتوراه
محذ
ذكرها
يشعرون
الاخبارية
زراعه
ولاح
الأهمية
كيري
الشاهد
اغسطس
لشهر
النطاق
السياح
##ااك
الوزاري
الماليه
لإطلاق
بالغة
مستخدمي
##لاده
الكلم
فعليا
الايطالية
لاقت
##AG
ينكر
عهده
دائمة
للاس
يتولى
للسياحة
جادة
والكل
بإطلاق
الواجهة
الاجنبيه
##غور
للرد
جيده
أربعين
##رائه
خلل
المحور
نبراس
والصوتيات
اقد
امتلاك
##وثائق
مليشيات
شقتك
فاحفظ
والاز
مقهى
سكرت
كهربائية
054055
الثنائي
وتبين
الافريقية
0540557770
##وصيل
##سوبي
ضربات
بقلوب
البشره
الإقتصادية
والحماية
أعاد
بالإس
أونلاين
الندم
العيوب
يوان
تدفق
##وتيك
المقالة
##جزة
طاولة
نخبة
الصها
غسالة
محتاجين
##ئام
##ys
دلال
الكاذ
بالمنا
سيات
وعود
ترومان
##فوك
الاباح
ثقل
وقتي
##53
النثر
سرور
خوات
احلامك
الاجنبي
دمر
طريقا
استقر
البدي
اسبوعين
##فيسور
جوع
تغذية
الممارسات
##وجات
0500
المنيا
الاناشيد
يتحرك
##ptv
المعنيين
##عوها
يوفقك
تحريك
2020
##لده
تسوق
الكاريكاتير
صلب
نلتقي
اسباني
كلاهما
خارجيه
للجز
اقوى
مهموم
والنشر
فريدة
تكبير
امكانية
أمم
اتخذت
رعا
اوق
ميجا
إبتدائي
المدربين
وللش
خطاياه
أبيض
خت
حمايه
الدمار
احكي
##عباء
التردد
سالفه
لادن
##الخ
الدراسى
امنه
تارك
كونغ
فازت
##جاجه
للتر
الهام
التجاريه
ماستر
##جرت
فاعل
طعن
حاد
لمركز
هلك
العلمى
ابوس
اكن
ويسعد
البعثة
محتويات
لجمع
مختصر
وقدر
##وعين
ساهمت
مصلحه
##افير
صعوبات
فيفا
##اهرات
يسأل
التراجع
تجعلنا
ياما
وحاول
##٠٠
احن
توبي
مستحي
برود
لمثل
##ury
بإضافة
بكلم
لوف
##لفاظ
لعدة
##نياء
للحياة
سلبية
الصبي
بالعراق
فيض
00962780
للحب
يجعلها
##هده
واهل
##بادئ
الصلح
إسرائيلي
البطاقة
##ستار
دوائر
##ريش
المجر
للاعلام
##ينسي
##282888
00962780282888
vb
السلسلة
نقمتك
ولولا
المؤتمرات
اهلاوي
الحش
ضحكتك
السوا
هرم
LG
والصين
القرشي
أطول
المئات
تزوير
ممتازة
الظهور
##لبن
وتضم
ارخص
قبرص
بمتوسط
وصوت
##لمبياد
نوفر
السيرفرات
##inanc
##حيلي
التقد
عادات
أنبأ
أبل
الروي
المشهور
شوب
كورد
الميزانية
والنقل
دفعت
العقوبة
الدقة
بصير
##غواي
البالغة
الملاحة
تجعلك
##ورط
##عودي
##عيان
حولنا
العادات
##زاع
مسؤوليتها
الالوان
المستدامة
يصور
ماليزي
القوس
الاغنيه
يجمعنا
تبعث
نوي
التهم
هندورا
##سيون
ياتيك
الدستوري
اتذكر
والتربية
الساخن
الذكور
وبحث
وتقبل
00966
شطر
الإنك
قحطان
يخلص
وبمجرد
المثالية
المعتمد
iptv
طالبت
##آة
الأنس
جهل
لإنتاج
وتوا
بمشروع
ويضيف
الرمضاني
قتيل
ضاعت
تحمي
سراج
والأخبار
##هرة
يحظر
الإفريقي
##let
##اهيه
رسوله
المصلين
##يمر
هاك
وحصل
تجده
##وحش
علاوة
الانتماء
مدنية
الأبعاد
ماكرون
عرضة
##مارة
صحيحا
لرس
غايب
##رائع
وعرف
##اثر
TM
فديو
ملاحظات
الراغبين
والمواقع
المقط
##ct
ذنبي
ايت
طوا
##اردو
##سابقة
للحديث
السمك
##وانئ
أندرويد
يعقل
ماسنجر
يخفي
صديقا
قتادة
النجف
متمن
انفسكم
زهرة
مشتهيه
عجب
مليئه
مشروعا
##ثرا
##زهار
للتق
يتكرر
والتسويق
##كاثر
رايه
##بيحه
قليله
موقفه
المصحف
الطعن
##لسطينيين
##شهر
الأرضية
##كتات
مازلت
متقدمة
اقامه
الغبار
مشوار
##ese
نفوذ
الشقق
وبار
الأنواع
ارقي
الانبار
ابل
احساسي
##زى
##لحف
بروز
طلوع
1982
وحضر
مثيرة
والكلام
هندي
##كانات
كروم
كنتي
وأخرج
قوس
الحاله
والآن
عائلات
ومحاولة
التفت
الصليب
ورود
##نتهي
##ئتين
المواجهات
##كرار
بورد
الوظيفي
السالم
المدعو
أيد
بعينه
ممثلين
##سوم
حروب
تكذبون
بريده
بالمثل
مسكن
##ood
القفاري
##جزه
النيابي
وعضو
التضخم
فسب
مطالبة
ويقولون
واليك
سماحه
تحرر
سيعود
مساهم
الفهد
جوكر
اناس
جاهدين
##هيئة
تعالج
يوجع
والاط
افتقد
جماع
##عاه
##وطان
خطه
ودية
الوحي
تنشيط
##رقب
وإح
للتش
بلوغ
وقله
باطل
نسخه
لحين
##جج
المرضي
القياده
اولها
وامان
##غازي
##ثية
وتشجيع
مسؤولا
يعرفه
الشهرية
المتجددة
والقضاء
حسابها
السابقه
المسجلين
ظهرا
1988
رايح
سيقوم
المغامسي
تدشين
اطرد
بالقص
بتوفير
حينئذ
##7824
استطاعت
والمث
##بعها
قرط
ومالي
تخطيط
شكلها
##ارتنا
لاري
الزيارات
بالعربية
##حهم
##ؤم
جناته
أشبه
إياه
مجرى
استج
المقيمين
ميني
جعلنا
اسوء
##نوك
لسهيله
خلصت
ملاعب
جوية
يرسم
الفح
المحطات
بعيون
ليال
##93
والصد
##وقيع
حسيت
محبي
الوسائط
متوقع
يتحدثون
باط
فقيل
للتنس
المسلحين
##REAM
##ock
مكتوم
المعاجم
والمواد
تلقت
بالولا
##جيزة
المصور
النظارة
تقييمات
الصفقة
العبادة
المختلفه
ميونيخ
والترك
شال
ملكية
اياه
الحملات
السلفادور
للبنك
فأخذ
الرفيق
##عوده
مؤسسه
اسكت
قناع
النكاح
مسبق
قيادي
##بب
الفراج
الطول
زكي
شعرك
##رابة
وروح
اعجبت
تظلم
والكتب
##الزوار
مايد
##سيح
للتأكد
امنيات
ترسم
##طاب
ياايها
يشغل
موته
##فلت
##ee
##ظرك
روتانا
صنف
مقرر
والأسعار
للقلب
اغانى
وممث
هدفه
##ml
الصغ
##سابات
ومسلم
##ريحه
أنش
##للين
شعورك
والاهتمام
تتلقى
مدام
ووزارة
يدع
اهتماما
طرائف
الإفطار
##طوانات
الكليبات
المنشأة
##بابة
تقرب
للاضافات
الإفريقية
رفح
لهن
##دان
الاذكار
التقنيه
##فرين
بروناي
السيطره
ساس
للمبار
سجد
رزقا
بعمق
##سلمين
##oth
حقهم
وشركة
بمؤ
تأخير
##بطت
الجذ
الخاط
يفوت
ضحية
اللذي
العوام
عددالزوار
عراقيه
ملز
##0557824
تمضي
موازين
ركعه
مكاني
تراها
##gy
##لوقات
ستقوم
غلاك
فصائل
ديما
افاد
فالج
وحشه
التما
واجهة
يقد
فكرت
عملهم
شره
##دايا
منازلهم
##اكي
مسؤولة
900
كينيا
وتوجيه
ثلاثي
للتعامل
الاعدادية
تراني
خليه
وأول
يمضي
لوزير
بيتر
نوعه
استلم
التشا
عاا
الفقهاء
خله
الفاط
شعيب
بتحليل
##اجات
عفا
##المات
صفاء
مطلعة
##بيو
والامن
غربية
المنصب
بإست
الجوري
##2015
اليمنى
##خار
##قارن
##طهير
##قدان
الأغذية
والمال
الالغاز
##بداد
وتخلي
عضلات
الشيوعي
بكركي
قدرته
الاهلاوي
المسابقه
ورجل
المناصب
الرسميه
والألعاب
عددال
إدريس
يحملون
زوجي
مشتريات
واشهد
شيب
ناجح
عيونها
وبيع
en
بريطاني
اتحادي
للسعوديه
كونا
روبرت
أثبتت
هدفين
ذاتي
يختص
منطلق
##عمق
منشورات
والتسلية
هود
حجاج
بتوجيه
قدموا
والفت
فاف
يتصدر
تسيير
الضيافة
ينال
رومانيا
ميتا
التطبيقية
كرس
النضال
لفتح
أعض
الخلافة
المصنع
إلكتروني
##فضة
##كوميه
كذبه
##يقاع
أخيه
بخاري
طلبا
والمشاكل
##يفية
المربع
جسدي
##حتهم
جاذ
اضعاف
الخلل
معيش
الرقص
تاه
لسي
الاسبانية
الائتم
لاجلك
##فتي
نيو
صاحبك
##ین
هين
ألقى
بى
انظمة
للطيور
##ranç
القومى
بالمحافظة
##عله
عقبة
الاردنية
أرضية
الاداء
الفوزان
اسحق
##لفل
المحاكمة
##ولوم
وقوف
##وادم
دعمها
التهذيب
الهض
والرحلات
ويرجع
الخالية
خلع
وللمؤمنين
وتعرف
لئ
تشرف
الخطط
التشغي
اقدار
الحظر
السيئه
ووصل
للمحترفين
فيمكن
##رابط
ثواب
معينه
والطلبات
##يداع
احمرار
طفو
##ئح
##ويتها
تقديمها
تعبئة
العزم
##وفان
##0557824327
وإست
دخلي
##آر
يعجب
تشار
رامي
MP3
تريده
أورد
مجرب
##غلق
1500
للبلاد
##rançais
استه
باتا
##حمدي
تدهور
الدولارات
شعرها
##وشه
تكاد
تحذ
ترتبط
##جازي
يلح
الاربعين
##كبة
##رازات
وجها
واتهم
مناخ
غريبا
يهود
عاجلة
##بايب
##ويله
حصن
الجيدة
أتمنى
رافاييل
##ولن
وتحديث
##لدات
خوض
##alax
المائدة
الجروح
فلب
اسهم
نسعى
الخريف
رومانسية
##ميلي
##oun
الدرب
والمحا
سيرفرات
المولى
العموم
البها
##جما
بنسبه
هجوما
المحدث
مغادرة
ماكين
للتخ
وتنظيف
بيدك
##البية
مخي
والفي
تقليل
المصرف
Micro
##روءة
##خصيص
الاعتقاد
اقرار
اسره
وحمل
كنه
الأت
متوق
العجوز
مقدر
##اميك
ألبوم
##خاف
عددالردود
يهاجم
مقبره
##لامح
المحتمل
لابت
إلقاء
##uch
نهائيات
المبر
للاسلام
ضياء
مسافر
##دلة
تدبر
الغريبة
تصلح
الملكة
تعثر
اصحابي
##غداد
فيتنام
داخلك
أذربيجان
##صرها
ستين
remove
وظيفه
فيج
الأدلة
يكمن
المضحك
##AL
نستخدم
غو
البصرية
شعرية
الموض
السلمية
واخيرا
واخبار
وموتي
##وصف
جمعيات
مليونا
ثقافيه
اتع
##رافه
امهات
الصعوبات
الشيش
خارجي
360
##ويتك
النقي
الغاليه
##حيى
أنفسنا
المدعي
معناها
رشا
حصولك
لغيره
تكمل
الطابع
قائلة
العملاق
استشارة
إنقاذ
اشتري
برلمان
العائد
غباء
ومواقع
نبيا
##تيان
فوض
##UB
للعلاج
وحبيب
فيزياء
##هاش
الطبعة
الكفاءة
للسوق
والإن
الأبطال
بغية
مايخص
اهو
ينتظرون
ذاتية
وتعب
اللغوية
نايم
يقتصر
أدلة
##قازيق
اسفل
الحبيبة
الشاع
بالخبر
جئت
##ظاهرون
##GD
حضرموت
سلمت
تاس
والدها
قطعت
ابليس
الإك
إحداث
##وابا
للمشروع
العشرة
##ورنت
التسيير
ظلمت
سيره
الفلاشات
##نئ
نيكولا
##يلي
دفتر
المدع
القصه
دلالة
للثقافة
تدمر
##قاتل
الإماراتية
قصاص
الحربية
ادور
##واهم
##ئته
يوميات
افر
قان
حنون
عاليا
العلاجية
مولود
بمتابع
محلل
فاكثر
فالنسيا
الكثيرون
احسب
حمار
الجاي
##راة
المؤشرات
العلامه
ذهاب
للنصر
والتقنية
##وافل
##سيسي
##وقيت
HT
والمعلمات
مايس
بيرو
مساكم
والتصاميم
طلق
##صحابه
وتؤكد
نجاحا
##براطورية
إغ
الاحكام
الاعتداءات
حقن
##لتني
نبدا
بيبي
مجن
مجمل
الفيديوهات
تحقيقات
القصور
##360
##انياهو
عاشور
##دته
وبنات
وذهب
تجميع
لتسهيل
ويط
الغلط
مجهود
تحافظ
اغتصاب
##كروا
الإي
يقترب
وأصحاب
نوايا
النصائح
المرشد
والخاصة
تتجه
موديلات
غيرنا
ونع
##ience
انهاء
اسطوره
بإد
فهمت
بالاف
مهنة
السفارات
متكامل
آيفون
تمييز
اختك
البترو
والقط
عبق
##سيمة
اجيب
فيروز
الغزو
المتصفح
##اطري
العبارات
قتال
منافسه
صياغة
البنكيه
اربعين
مركزا
صدقني
واجد
مثيل
صادقا
تصاعد
حفص
مضاعفات
قريبه
صافية
توافر
##ائعه
لاجهزة
للمياه
##ئران
خصوصية
لوحه
##فاة
روك
وابي
عنيفة
تطرق
عيبا
الجهراء
ويظهر
لطال
رمات
ونق
##فعاليات
اسما
بعيده
كارثة
الممثلة
حالته
مخاط
فاجعل
فرسان
الانتشار
الكود
استقالة
والمق
بالاخ
تكسير
سعداء
بطرق
##عبين
بالصبر
بالفرح
يسار
الاحتياط
##ييه
دخوله
بداخلك
مؤثره
المحل
الجوده
رصيده
أثاث
والخليج
يغطي
نسبته
تحفيظ
والأنا
الشقيقة
التنموية
التسا
بالاشتراك
وحضور
السلبي
ينتقل
توه
عادية
يميل
##ins
تقلق
يتيم
تبرع
لولي
القيصر
اتهامات
لجمهور
##اريات
وإذ
##تف
والعديد
ويبلغ
الولي
وأهل
الإبل
بادر
ماق
احزن
وطال
النهوض
تسكت
وجرى
المستجدات
مواصفات
تبغي
##ware
وتتم
لعقد
حضره
##الط
للتأمين
طائره
ينطلق
ردت
نستودعك
فمع
شكلت
بدورات
اخطر
و4
صاح
ترحل
الموازين
عصرا
السند
المزايا
عبدالمجيد
أولياء
حلما
عظام
اغنية
انقذوا
شرائح
لرجل
يله
مخالفات
##فوعة
البحيرة
تشرح
فتنة
##لمس
أعطى
والعلاج
المده
ارتكاب
المؤمنون
تعريفات
فاير
##ting
العرف
بتكون
##بادلة
السابعه
الشبهات
##ماوية
ونف
##بتهم
والاثاث
##ذبه
تومي
يتنا
##زني
##eneral
EC
المعاصي
بركة
خروجه
ملكة
مراكش
##ثوم
ليح
بصور
الملخصات
الحاصل
شراكة
مجدي
القريه
لإنشاء
##خرية
الجذور
شيك
منافسة
لحق
الون
وسج
اخلاقك
أقلام
التميمي
المسافات
اتب
##أله
سمعنا
اسرة
ومكافحة
المميزه
جنة
##نهم
الجماع
اكتمال
ظرف
الجنوبيه
مضاد
حفاظ
سعادته
##سنة
##ضيء
تعطل
ليومين
يحتسب
فلور
الغدة
الموجهة
يمث
أوز
المواصفات
الطفوله
مريضا
التجاره
الهوا
واقعة
الصنع
وفاز
##تحاق
يجر
مؤثر
##فظة
المعلق
وجودهم
مواسم
اعتذار
وضرورة
كوين
يفتقد
داره
جماعات
غاليه
##باكستان
يجرح
شامخ
المطران
مصحف
##خلوا
تقريرا
دوس
دفن
##ator
Fl
##ثان
اميركي
0550
ثقافه
ناديه
##ارتهم
##قيقتين
غروب
يؤذ
##خيم
Premium
يقتضي
لإقامة
البلديات
والسعودية
##حمله
انساك
عمرا
والوق
##vue
المواطنة
ينعم
World
العنصرية
الاستث
التصريح
عسر
متنا
الاجتماعات
الفلس
بتغيير
العقلية
##والله
التغريدات
نرجع
واليه
معافي
يمثلون
وطيب
تصلي
قوالب
لدولة
الصاحب
##صالحين
قصيد
بالتر
أرمينيا
بالمؤ
##ويب
##ادته
الأنصار
الايرانيين
##IA
شخصيتك
راقيه
المجرمين
##St
عقاب
الشركه
ليتم
الاعلامية
اريستون
##لونا
المبكرة
متحركة
مساله
ابشر
ضيع
للعب
الهارد
والمشاركة
وثقافة
ياكريم
مصريه
##نساء
حاش
##ايير
الإشتراكات
بمق
دمياط
تكونوا
تحكيم
الصوتي
##حريري
للخطر
حليب
الأهالي
الأشعة
انتق
Sm
##OT
لجافا
وانها
##ديمير
##ational
التذاكر
المؤهلة
واضافت
ايلي
الشاشات
وتاب
تناقش
عدوك
وارفع
المزد
لصحيفة
السمحاح
سقي
الخيري
السامية
النفي
وبالنسبة
ينبض
وجز
##رامكو
اليونانية
##طوبة
##راش
جزئيا
الامني
الحفر
يزيل
وجنوب
##نور
الديب
باسمه
صامت
##حرص
##لزام
الرمز
##plic
للاتصالات
##اضره
الموحدة
Tra
ماشاءالله
التقاط
##ؤوا
##الاس
الزملاء
متطورة
هنري
طاعه
بالكلام
براد
ممارسات
عناء
الكوكيز
اشراف
##ودعات
التوزيع
هدفها
##غانية
بديلا
بصدد
الصحافيين
فلسفة
##KP
العاهل
##شرية
مورينهو
without
جني
##اتيكان
غيبتك
##inter
نرت
شكره
Sport
الجوهره
الكاز
ab
ياباني
اشر
لتشكيل
##لوجيا
الغاية
كاري
##افعين
ويلي
نشرته
والغرائب
الاجازه
أجريت
تبيع
ناقش
الفلوس
الاسلحة
احلم
النصره
معقول
وأفاد
يتك
##ony
جيزان
للملك
حسنة
ولط
يشجع
البرق
وأسر
يتعب
بتغ
المستشفي
مدرس
##ههه
الملائكه
التواضع
الأجيال
مقياس
يبحثون
اندلاع
للوقوف
ازمة
الإعجاز
غن
تناولت
وبخاصة
القلعة
التنفس
##امينات
معاهدة
للقطاع
صلاتكم
الوك
الغس
لكأس
التغيرات
القدير
والبيئة
تورط
##87
كيا
عبدالمحسن
المسئولين
الكرامة
برفقة
كلش
ماركه
الثقيل
القديس
سرعان
##زقك
جمهوره
اشبه
بروتوكول
تتكرر
##EF
تفصي
مبيدات
المجاهد
تحبني
التفاهم
فضيحه
البقره
##اربي
حقوقهم
قبلك
أكس
وثلاثين
المهنة
عزه
واعرف
وكتاب
والفرفشة
أحزاب
##رافقة
آمال
فائده
ميكاني
الطوائف
ركب
العضلات
بقياده
التوت
ناجي
لسنوات
تقترب
أبرزها
##يدها
##اصرين
##ذات
البقاع
الموريت
يهو
PHP
الحراره
بالبحث
الأربعين
##لانكا
احساسك
مداخل
محو
هدفنا
##كاذيب
مظلوم
نصرة
والعام
المتكررة
تخلف
دنياك
المذاهب
البطوله
ههههههههههه
الخت
الطاقه
الحراج
التشريع
نقاشات
الفتوى
الكاري
الخساره
ولده
تعدد
##يسار
صعبا
الاحتراف
الورقية
مفتوحه
المعالم
كوادر
كج
الاستمتاع
احاديث
##نعت
##هاها
الأرصاد
مرزوق
Gu
التشيكية
انجازات
تطبي
##طاقات
الجواز
والدولة
اسابيع
المحاني
الأكاديمي
وسمع
تزول
عبادتك
##ef
##او
o°
فالحمد
##براني
ولست
قادرين
الناي
وصلوا
مفقود
يعلق
الكاف
الاقصي
المرمى
مسجات
إمارة
لايوجد
لعنه
الماضيه
حيله
##لقاها
الاكاديمي
زوجتي
كفيل
القائمين
المثير
الخريجين
صبي
إصاب
للمحا
وتطبيق
يشرب
إجازة
باشراف
البسيط
المقابلة
اركان
طبيعيه
نذكر
بياض
حبنا
أنقرة
الجفا
تاريخها
أريحا
قادره
SC
تقصير
##غون
والشكاوى
الهمه
بنفسي
لإسرائيل
يحرق
##شور
##حتنا
المبيدات
ويعرف
الشباك
شفيق
##وعها
تفوز
الساخنة
واحمد
جدية
العبادات
لاختيار
تشغل
كوس
مهر
فقل
اصدارات
##أيت
الفكره
##ينيك
يوحنا
##ars
##حترم
##بدع
لاعبا
ومعرفة
والخوف
أندية
سيناريو
##ارتون
##ندقية
اللجنه
بالقوة
الاكتفاء
تتذكر
الخياطة
هايب
عجوز
##ame
الدافع
يخلو
عالما
##سكس
##خلا
ينطبق
125
بأول
استخدمت
##تموند
الخزانات
##امره
الضريبة
قاض
الناجح
فإنهم
اوضح
مسيحية
واو
الرجوله
##رقي
سيست
طابت
##طفه
فلسطينيين
حده
عطور
##199
اطباق
شمل
تصب
الزميل
سعيدة
والهلال
المحمد
##تج
مسمي
النقاب
تشري
Con
عشاء
##max
آبل
اجساد
الاكتئاب
الفاعل
احببتك
المالحة
خليج
واستقرار
المتوفى
الواف
الراشد
##سوانا
وقطر
##رياضة
القرأن
بشارة
مخططات
يظلم
شكوى
التحويل
بالصلاه
المصانع
اجانب
تشوفه
باختيار
رفعه
##روشات
وضبط
الهاشمي
التنوع
الفضي
المسلح
##86
فيكتور
ممات
طلي
الخشب
الفوتوغرافي
الشيعيه
التبر
##وجا
المحتل
غانا
سويا
##جزئة
غابت
البائع
والدا
##قيمة
للزواج
موزم
جلالة
وقضايا
التكرم
سميت
ووج
نتعلم
بضعة
معلن
الصربي
الاستوديوهات
##ويز
يرحب
جريح
انتر
هيت
المعاهد
##آب
وجن
الأناقة
يصرف
السبيعي
ظهره
الاعدادى
جبار
وارس
المختص
باخلاق
الاستعمار
##ايز
بحفظك
كلثوم
تعجب
##معي
توصلت
ساحات
ينج
رينو
تلاوة
##ضعفين
##als
##قيبة
مكي
بالجسم
هاجم
القضائي
للانسان
كرت
المسؤولة
القا
بكرة
تركه
الفارسي
سرك
010
قياسي
واقعية
بحريني
واكبر
خلقنا
البطاقات
الرواتب
الخسارة
مسلحة
وصد
##ميمه
process
تزعل
##هين
##هادي
اعتبرت
بالعكس
كيلومترا
تنتشر
Langu
أشعار
تحركات
عصابات
متاحة
##74
نشيد
##iyab
الشابة
النظارات
##للد
للقرنية
نوري
المشتري
ابيه
يجز
المرأه
التوحد
يجلب
حلاوه
##ياتنا
قادمه
عسا
تكثر
عملائنا
السعود
السور
الاشغال
##وزن
و2
للتحميل
مجرم
تحصيل
##كوا
الكائنات
قميص
فعالة
المشه
قسوه
الاكاديميه
العجمي
احلامنا
قيود
وصفة
البغيلي
لارت
##ومو
خيرية
الشمراني
##OA
معلق
النزهه
doctors
##ريضه
صورتك
ياحي
معال
##قاقات
ذري
سياحي
المتوفرة
الوله
مضحكة
وشرح
تلبيس
financ
تدريس
تعنى
جيتك
##دوية
خلافات
وجبات
والإبداع
والقوات
المترجمة
الجنان
المعدل
الجانبية
لتحميل
وبينك
مبرووك
بانيت
المنتهية
الطرائف
طبقة
وخر
تراجعت
الاسي
توعية
فتم
اشتهر
المحذوفة
اللاس
النائ
##لاتها
##ادين
ظفر
surge
شئون
مقترح
لدراسة
أوس
ساو
كوالي
والموت
العوض
##قتكم
والمياه
##وافر
تبييض
ليص
مايم
مفاجأة
نشكر
رشح
يعرفها
روج
يمتد
أسيوط
وبش
##حدر
واللاعب
منتد
ملغ
##رقت
نامي
##حرر
لسبب
مديرة
الحدائق
اساسا
العسكريه
قوته
استغيث
الممر
عبث
يفسر
تظ
طريقك
##عثرات
##برها
##معاء
استشاري
العابدين
لمنطقة
الشئ
السبل
المستن
بحور
ساموا
##رتفاع
لمباراه
الوثائقية
صادرات
وإما
دونها
الجدران
##عدم
معاملة
الجدول
المفتي
جثث
AF
تقليد
حمدي
##مامه
أردني
##TML
##اكيد
موقعك
هزيمة
وتونس
الويف
تناز
نكتب
الضخمة
##ااح
البراد
##اطي
طفي
##كريات
المتجر
المدف
##ادقة
ديو
الكتلة
باسعار
الاستئناف
غبي
##همني
وعافيه
حبيبنا
إنحراف
النظم
جانبا
المأكولات
des
إرهابي
ومازال
##دياد
وتحويل
خالف
##وووووووو
تتناول
ناجحة
المصطلح
الالب
الرضي
بسهوله
much
جزيره
يثق
التجاهل
اختفاء
صليت
arab
الميادين
التلفاز
وكون
LA
أسم
الزلزال
ساخنة
الغفله
والجد
جانبية
محله
يحط
عتامة
وأصبحت
##ضحيه
##tl
العذر
المنتخبات
ممكنة
##جود
مختص
المنتجة
القذ
اخترت
ستبقي
الأطلسي
Te
ستس
##iew
1987
تنزانيا
تدير
##لويات
صراحة
وستكون
ضو
##غرات
التبرع
##لوت
تجتمع
##ahar
اخراج
فيلد
عمليا
الريم
المقاطعة
##سوا
##واننا
ميثاق
##عري
اشعار
##عوات
الستار
شاغرة
كفروا
ومضم
أخبرني
مؤهلا
الحمار
ولوا
##طارات
الازهر
بأفضل
بدين
والياب
زح
الفصول
السائل
غلطه
##عدوا
البسيطة
وتصميم
Em
والحم
بدفع
التلوث
##زنه
كروس
اندونيسيا
الاخرون
تزين
ورث
عارض
عشية
السنغال
واسعا
يتمثل
يلحق
العولمة
النباتي
ويحب
##لايين
آداب
متلحف
عميل
مثالا
تنال
احفظهم
والباحث
لسر
العتاب
الأبناء
##رث
وغرائب
##انمارك
فلاديمير
برؤ
يعجبني
فو
العون
الفقرة
عرعر
##راوية
مرتفعة
الحزين
لاتفيا
بردا
الكرامه
للجامعة
محضر
الخضيري
مطمئنا
القبيلة
مرورا
الصباغي
تشكيلة
حنبل
ويضم
برصاص
الغش
##كاو
زراعية
ورحمتك
والاعلان
كذاب
ادخال
الميناء
الأشجار
الجنسيه
المحترف
ماغ
##يروشيما
##ina
ابوه
ضجة
وتعرض
الكنائس
كسي
##500
الجهوية
يتردد
نرج
الزمنية
##واجبات
برأ
للاستفادة
حساسية
العبيد
غيرت
وسعت
البكت
كاظم
جرافيك
شقي
والجزائر
الحضارات
وأفضل
نجمة
طوكيو
وأجهزة
##جرام
أعقاب
##ارسه
سويف
بدوي
##زويلا
تحي
كواليتي
وقرأ
للتربية
فوزي
بيج
مكتوبة
ونسبة
السيئة
فاشل
lazer
بتحويل
##ليقات
توني
الرمال
هونغ
الجذب
##ance
financing
##عاج
وبلا
المفاهيم
نيوزيلندا
##ريبات
تكتشف
femto
الاولمبي
lasic
customvue
motiyab
surgury
motiyabind
المطلقة
فاكر
البلاك
##خرط
الكعبة
##شياء
القصيدة
fr
##ندس
DREAM
برن
مدبلجة
ريحه
شديدا
ألح
للشاعر
حزام
العظيمة
النظامية
##وننا
الكروي
فتحه
##خري
وأعرب
##طباء
وتنا
##حاسب
نصل
نفهم
##منح
##ويها
والحياه
##ايح
الليغا
##جزيرة
المعارضه
الماضيين
أعداء
##واته
والمرأة
وتدمير
1979
النطق
##لانا
تقطيع
التنميه
قاطع
الانتقالية
الجدير
##نوع
عبدالوهاب
عملنا
اشته
الورود
يضاف
وسواتر
المتعه
##جاني
الورقة
450
مصد
أكلات
إليكم
##صوص
لدور
تحية
لوال
صريحة
المكس
الانتقام
الحمله
تسببت
الأمريكى
وابقي
##امس
العثمانية
صناعية
للبط
كيمياء
الهادئ
اجي
الملل
تداعيات
0533
البريه
##ext
تعتذر
جماعية
تذك
الحائط
صديقتي
CA
##لاحق
معركه
القاموس
نقبل
الثانويه
الحدودية
انجليزي
حبها
الانقلا
الرمي
##فتره
##روى
المنظم
المثيرة
مدرج
الميم
الصيفي
جيري
دفاتر
ديل
الضرب
##حنة
السطح
أنهما
كإ
##ملت
الذرية
راجل
لسكان
البرتغ
مدنيين
ضلو
الهدى
وتأثير
##املك
يحن
##555
يتوفر
اعتقاد
الإنقاذ
التهديدات
نتانياهو
وسبق
لمناسبة
البيطرية
وكثر
فدا
رائعا
قضت
##راويه
التشكيلي
##براهيم
لايست
بإجراء
بالجملة
بمد
الجاهزة
للطفل
الأمريكيين
الحادثة
جوالك
فعليه
##فعية
يمد
يجعلنا
حيفا
شجع
جث
لعبد
اكدت
تلاميذ
الحضاري
ببساطه
وغيرهما
العبارة
##ضوا
عطرك
ياز
المخطوطات
للكي
الانه
فيروس
الراتب
##است
تعجز
صيانه
ماقد
##ونيسيا
ابين
##ديولا
بتطبيق
ديربي
الترجي
##ux
ولف
العمالية
##لائي
وحركة
الثورات
##باتات
##لست
نابلس
القناص
ممدوح
بكسر
التمه
forum
الضمانات
بنشرها
خصي
اوري
الانستقرام
الصحيه
فردا
عدنا
دعمكم
##ool
ارتفاعا
بروكسل
العجائب
ساك
الاحتمال
وانش
الحديقة
ضايق
المكتبات
تسرب
ღ♥ღ
أنثى
المشاركون
ولين
##ملك
انتصارات
فوركس
والمسرح
الصفا
ندرك
طرب
وتعالي
الرياضى
لضعف
GT
تلبس
للعرب
والفنانين
الضيف
رابعة
عشقي
العقدة
##لاجة
منتخبنا
وتض
الالي
رزقه
##شهاد
وفعاليات
السعدي
استجابة
زوجتك
برافو
تعترف
مزاجي
وبعضهم
والعجائب
واستخراج
استق
النهارده
دونغ
##فلام
الجنين
والمسؤ
اعيننا
الانقسام
لمساعد
صبرك
وإيران
كتبها
الساق
##شاه
المحبين
تخلق
اجاز
يزرع
مواف
تصعيد
حضرتك
رأيه
أفراح
اخشي
الدريم
SV
للمرحلة
عداد
وعاش
##لوبك
وسهل
كازاخستان
##عاقه
أشعر
اقتصاديا
الفيوم
المكتوبة
إيف
يومها
السجناء
البرمجيات
المرورية
ايمن
المشروحة
صديقك
استبعاد
كوبي
دعمه
التنا
##باهي
ايجابي
مقعدا
خاش
الحراك
psd
للمؤتمر
سيري
الأرز
تصرفات
زن
والمتوسطة
Se
أدري
الأض
##هاوس
كلوب
فالد
نومك
##شوا
تعديلات
##الحريري
موريشيوس
المجتمعية
استودع
خفا
##ستيشن
تستدعي
الاصطنا
الضحية
##وجاع
الثري
للمنطقة
بعقد
ونتائج
بنجلادي
يفرج
الإض
مناقشات
رخي
##ازان
الشفرات
الهج
عهود
وتحمل
وكلام
أسفر
##وقل
احصل
ستارسات
اداري
بمساعدة
والاي
هاذي
يغرد
للأم
الكناري
بوغ
##زور
RT
التكريم
التحض
##ادرت
##معون
وقصص
رزقك
##ياتهم
بمنع
ومراكز
للجمهور
##دواج
HU
المراس
وحدي
##زج
##فتك
##زيم
معلومة
المطروحة
دمج
مسلحين
##وسيا
##ونتاج
بإح
يجيك
##رحه
##سول
بمستوى
عرشك
العسكرى
وتستمر
السبعة
##لتيكو
نيل
تكليف
انتشرت
والنظام
بقطع
والطلاب
موسيقية
الدال
والعربي
محترم
التزم
الدجال
راضيه
مؤتم
كلمتان
انتباه
وعط
الحوثيون
افقد
والكمبيوتر
بدعوة
رئاس
يدخلون
الإصدار
الابعاد
محف
والشرطة
بحض
الأولمبية
##رفشه
والالعاب
القياسي
##قهلية
##وتشي
والأخلاق
##زهري
مجله
هبة
هواء
لقطاع
واصحاب
صفقات
##Sat
للنفط
ونحو
منفر
ملل
وتشير
اتعلم
##ارعة
انتهاكات
المرو
المريخ
وبق
الاكاديمية
يحبني
تسلل
كريمة
رنا
يمنحك
##يبها
فالق
الجوزاء
سفاره
اظلم
والمعدات
اليومين
النوعية
الحياء
للسلطة
وصحه
نيفيز
لقر
وهدف
لطالما
امها
حسد
شرو
جاري
والشتائم
المبرم
الدغيم
الاعشاب
كافر
ابراج
تلتزم
##okia
##ique
الزقازيق
هوايات
حيز
New
##بيرا
والدعاء
همومنا
التصفيات
الجميري
للإعلان
والماء
##لزمه
بتقول
فاين
##ئتي
موجب
الزوجين
لينك
ثمان
mod
##ya
المهن
لجماهير
الطاولة
التنظيمات
راحتك
زحمه
اختصاصي
##UP
والشرق
وبريطانيا
##جده
رغبه
والباقي
تبعا
الازمات
الربط
الطابق
السنت
الودية
للرجل
يقدمه
ازمه
##شح
الحدا
مادري
##أنف
الباكستاني
بمعني
التغير
المنخفض
##ارث
يزعم
تاون
والنه
##تن
##سما
الاصحاب
مركبات
سمعته
##حاسيس
الترشح
##ناهج
ذراع
أطباق
بدمشق
##1932
موباي
الخف
الإجازة
##orn
نوال
واهد
هوبا
صالحة
وحزن
المصطفى
تحلم
##كور
ايجابية
عبيدة
##اصره
##ستنا
ولابد
والاستثمار
بالمق
الكوكب
الجائزه
بالمخ
شقيقه
إحد
##منتدى
##overy
يتغ
وإي
دعائكم
يلعن
مليشيا
##نتظر
والصلاة
خطبة
##دهن
المشر
عرفنا
cl
مديرا
التشيك
بالفوز
وهلال
الأبد
الهروب
الحوارات
فمنك
##ينج
صيغ
منال
##لاوي
يريح
والشروحات
للمؤمنين
بثلاثة
##لاميين
بالري
لرجال
والعمر
##ps
تبتعد
لإتاحة
الجبار
دمي
سيلفي
مغر
كتابي
##وزو
الانتفاع
تشبع
فتيات
##yle
##غمض
والإمارات
يؤمنون
اال
اللوحة
غرين
المخاوف
الدولتين
مارب
فالب
تحفيز
سيؤ
##ision
##ودج
الببغاء
##min
الروحية
معروضه
الفواكه
ومعدات
مايش
موطن
الصفقات
واسم
يكسب
##زايدة
والسير
هيونداي
والدليل
الأمام
والكت
فؤ
##لاشات
البارحه
##ناعه
التلق
ليونيل
للإنسان
والإقتراحات
العقبة
حاولوا
سترونج
الموقوف
عرس
العجب
تمطر
##alaxy
جزي
الشن
##زوجه
الروحي
النخيل
واصلح
بالدرجة
لمد
موديل
##قلها
ورح
نزيه
سكك
My
ظلام
الجنائ
برنام
سره
مبادل
ترزق
العدسة
الدفن
هالت
##ليبس
لتأمين
بماء
يلب
والمطاعم
القرآنية
##رداد
غائ
##صريين
اسولف
الاثار
نسيان
ZW
##براز
والجنه
الفيدر
والحلول
هطول
حبة
الاتهام
تحمله
وثائقي
بغرض
والسلامة
العصبية
اقولك
الاحتياطي
وأصيب
طبقات
بلج
والفق
وأعلنت
لفض
توضع
اجزاء
##روقة
شاهدوا
الكردستاني
جرم
تطبق
وامر
للانديه
إنش
موجز
وصباح
الالهية
ومميز
##خرون
فضائل
مدينتي
الحسنات
الأفعال
استثنائية
بعت
خوي
رؤيا
كتر
مونا
المفاتيح
بلان
التنقل
نظافه
بحري
لبدء
مكعب
صحب
مقاول
مستعم
عيت
بالمو
##ائلين
##ذبهم
الأغنية
تحتاجه
##صاله
المرسوم
المراج
الدرقية
مناصب
##82
تعتزم
off
مسوي
فولكس
ذهبية
##NL
##اكسي
العتب
أوسع
للمسا
رافا
الاستهلاك
للنظر
النزاعات
ومحد
والأب
ادخ
Intern
زمنية
بكلمة
الأني
موجهة
يصب
خامنئي
للمملكة
ترند
##طهاد
قيمتك
أمان
LED
حربا
الصفحه
##ستية
ونقول
متعدد
للعد
General
يشكر
معجب
انيق
المحرك
المستعملة
ورواج
##الاب
جائز
والتقدم
تطل
نعوذ
المحلة
دائمه
أسنان
النبوة
تفارق
وعليكم
سفن
##للى
تفاج
والواقع
الدعوية
ووك
اقلام
دامك
استودعك
مواجه
##VB
يتر
##نايا
سأل
والنهار
المعالجة
جول
وملي
لازال
##جمل
##ديلا
والحرية
الدينيه
احي
بارده
##هيد
سمعي
الإقتصاد
ارق
##قدات
النصرة
##ich
قدمته
يغلب
رأت
وحما
يشك
لتعلم
للحكم
مادية
لجامعة
روسية
قولا
حبيبك
استدعاء
أناشيد
تحقيقا
الكورة
الداعية
الرجيم
tr
التشغيلية
نحبهم
##سمبورغ
##soft
FR
الكاميرون
وصفها
واليا
تحتل
للغة
لجعل
يقولي
##جوب
واسعه
والرق
ينفي
الجفاف
##ندسين
بموضوع
والتبريكات
متعلقة
التدابير
بدخول
حاجته
وشركات
سجده
الرأسم
لأهل
الأمثل
الحاكمة
روايه
محق
الرؤى
تميل
##اردن
ماخذ
##وادور
الفس
القنطار
شوط
وطنا
##راسه
الجسر
الكريمه
كوستاريكا
##amsung
عيان
الأحمد
لصف
105
وسلامة
للاجر
عقدة
مهت
##قاظ
كيلومتر
مرتضي
الغربيه
بذكره
##اسات
طيف
وأه
وراك
الاوراق
تاجر
والنق
الاستغناء
١٩
تانيه
وولا
ارضه
الحما
بته
وكشفت
الجماهيري
TH
الفنيه
اهميه
تهاني
نعود
تبث
اللاتينية
##موا
واسالك
ترانيم
معلمات
##روي
السبعين
##يندوز
اعتقلت
الأعظم
فادي
تكتمل
طنجة
معتز
المستور
الرئيسة
الاستجابة
دره
قالا
الصاعد
شاحنة
الوزارية
دليلا
قطب
منزلي
تبك
أذن
رياضه
الرقة
مسمى
وفرض
السيول
##رغم
الهادفة
##تت
استثمارية
والمعرفة
الربيعي
شوفو
وكلنا
##ثيوبيا
بالرب
تحرق
الغزل
اذي
جنسي
##مائر
##ress
نحيا
بسداد
do
##رقة
تحبها
واسر
قاده
أمطار
اللد
اعجبتني
بالاسحار
##لونة
تقلل
الذل
شوت
##واضع
بطول
1948
النحاس
الديربي
انعكاس
##شاور
##لتس
1970
العبدلي
الخليجيه
بالبيت
احتسب
بهاء
خرق
جذور
التمسك
والكويت
والديك
عبدالفتاح
مفار
الأرباح
##ليلات
للمص
التوسع
الجغرافية
سقما
لأنك
ترتاح
المشتبه
استرجاع
اعتما
يعاقب
وحيث
مفخ
التشكيلية
تاف
##لعي
وسبل
الاحتفاظ
اسنان
متنقلة
##its
##ارسين
##ساوية
ترجم
عبرت
##ثري
##الباطن
حظوظ
التليفزيون
##ؤؤ
##ذهان
مطالبا
ماتش
بنور
وسلامه
بحال
عملوا
##كتشاف
بقصف
الإعدادي
نبحث
##حش
برسم
أصغر
لخير
التكاليف
الادعاء
رخص
بولس
برازيلي
الشبابية
عجلة
صدقة
أمامه
توبيكات
##دني
واجعلنا
امريكيه
المغربى
حجب
مخلد
BO
دبلوم
للجمعية
تبديل
012
والحسن
المحليين
والمناطق
الارهابية
ريد
ويعت
الفريدي
التاني
مجهولة
##بروا
سطر
تعرضه
استجب
لئن
جسدها
افب
النهج
الاقليمية
فهر
اكتفي
ينقذ
بلغاريا
ستوك
هوندا
بالدين
بموت
##83
يربط
الأعراض
عبور
روق
جارية
شفته
غصن
وفجاءه
متب
تنادي
##شخص
##81
سلاما
سعه
##اكهة
##نكم
علية
الأرثوذكس
اصنع
##رورا
1436
لكى
فعندما
المستقيم
آلات
تخلو
القراءات
لوم
الميكانيكية
تضطر
باض
كلمتين
الكتل
##رفا
ألأ
بحوز
والانس
##84
بالسعاده
٢٠١٨
مريح
##ساح
التأليف
الثلوج
بمدينه
والنائب
##شيت
تنازل
القطط
##ild
استيقظ
مسجلا
##ريكان
بالنادي
dm
##درت
الروضة
##ترون
الاحتجاجات
الوجد
نفوسنا
يسعدكم
##وبك
عنيف
أدوية
فی
يدوية
##بلاغ
تحقيقه
جيه
##ions
كجم
01149
جيران
وشعر
الرباعي
طلا
مولانا
##بوب
وسير
شنت
لإح
مقاتل
كائن
ضجيج
فستان
الدخان
هيوماكس
واعمال
مؤقتا
اسكن
قادمة
الثقافه
الفاتيكان
محط
ومض
يراقب
أنور
اقص
مقوله
المونديال
##ضافه
كانها
تند
خج
فرانسيس
تعاملات
اعتاد
الخوارج
توجع
##ll
سمعه
لنتأكد
بشحن
للشرطة
معلوم
المني
خارطة
فخرج
وتوبا
النقابات
يسعدنا
الانتقالات
##كرز
سحاب
يتجه
حور
تقليص
امامك
##اطع
الشبان
الكويتيه
سورين
##38919
برايم
0114938919
بسام
احتياط
الطائي
محاسب
رياح
عقيد
##فلة
1986
يركز
##جموعات
إتمام
##oy
حره
##ربيل
بلدا
بالعلم
الفاتحة
والأع
ناهيك
نرحب
ترحب
تجلب
تراقب
##ونالد
التنبيه
الليمون
سوب
عمالة
واللجان
القاعة
لاير
الغرور
الخلفية
وكأنها
بمتابعته
عسكر
الزفاف
المذاكره
الهبوط
##احت
عزف
والخروج
Section
ركعت
جانبها
طلحة
الانتهاكات
##توا
##بتنا
سياسه
AD
اللى
عناية
##عوان
بالطرق
ملاذ
يهودي
وبلغت
والبا
وضرب
بتبقي
تقولي
المارونية
السويداء
إطلا
امسينا
##كتها
لانني
سيحدث
غموض
امامه
لاطلاق
والمي
عبدالجواد
أسعد
الناتجة
##طاول
بيق
موناكو
ضربت
التعصب
##رائها
قيا
المؤرخ
الحفظ
##نعة
الحسني
الحدودي
##اطس
الخطيرة
كيفيه
الطلابية
##بنا
للمبتدئين
ونقارن
لتجنب
بدرجة
قنبلة
اعتقل
##اراتها
أخطر
قدس
شيم
ماريا
هايبوينت
النجار
وفخر
بعدة
الأخذ
##داس
نقلها
الشاه
101
نلعب
##عظ
اقتراب
والقنوات
##شوق
##اصلة
حلت
الإيجابية
مزور
##دس
لحود
الروماني
الكناني
ميليشيا
ميركل
لذيذ
يبا
انديه
لوالدي
للمقدسات
خليجية
طبيه
فاحسن
المصمم
تشتكي
الناشئة
##ريمه
مرجع
الآونة
##2016
لدنك
وضحك
بعمليات
##RK
الملكه
رفضه
بشرني
##جزت
الزير
والخير
وتفعيل
المجلات
مولى
سيدني
##TD
بنزين
sa
الغنية
حجمها
الطين
##مالى
الثورية
PS
١٠
وستنج
الشرايين
تحققت
معظمها
هاه
احلا
بيلا
##OC
موازنة
والجسم
المتطرف
الفاض
والظ
كرامه
زور
بالمنتدى
للإست
قاسي
المتخصصين
اخوك
##كف
لمنصب
المسؤولون
الخطايا
البراك
حقنا
والبناء
الثلاثين
ويجوز
حقيقيه
حكومته
بظ
##هامه
الفرنسيه
والجامعات
للدين
بعضه
يجه
وشباب
مؤتمرا
##هاج
##وجواي
منهن
##2018
البولندي
المنظومة
مبتد
##bc
العمارة
الكردي
##واله
##اعته
الراح
الدردشة
انتقاد
جسمك
التجويد
##مازيغية
دخلوا
خيبه
##عط
كواليس
يزعل
لاو
بحه
الأندلس
فنلندا
شهدتها
الحفلات
مرمي
المحكمه
راسها
سيل
استبد
نترك
الرموز
بيش
لقت
الهداف
LC
شكلك
صرنا
يونغ
بوسط
الاميره
أعمار
وكلا
220
مؤيد
الكوادر
شروق
تتك
اذكروا
كمل
##يفر
##ضون
بشوف
تضمنت
1976
فتفضل
فرحتي
##غاه
رافع
غائب
وقاية
الطلابي
وحنان
رمضانية
##فاكية
وانزل
بدايتها
ونز
فجعل
##obe
والوا
ونتي
##لوح
زغ
ضل
##فادي
المخيمات
تعاد
فاقت
الشاذ
جمهورها
مواعيدك
الجوهر
المراهقة
امسك
إصابات
##سيو
##able
اختراع
حضوره
والاجنبية
داري
##مله
يرتكب
##بتين
الفضيل
أودي
مسائكم
المنار
ورواه
ادعيه
راقت
وشهدت
تتزوج
وكانه
يقط
##GA
أحدكم
فوكس
طلاق
##مأن
يته
عمير
الخيمه
وفلسطين
مستن
##اهلي
نتوقع
اتق
تيجي
شيلات
سواد
اليمنيين
خصيصا
والفقر
بلم
ظلمه
تقديرا
##طراف
تشويش
استقباله
اهتمامك
يكفر
النون
و7
الخميني
التوكل
لإنهاء
##IO
الماده
##خف
والتنظيم
أساتذة
##ريفة
الزيوت
وسيله
قو
بالشكر
تيفو
تكلني
##عنا
يرجي
##101
ولجميع
تفعله
ناسا
السوفت
متفا
مسلمة
لرو
اعمي
شكاوى
اصول
التعايش
تقدما
##97
بلدك
وخل
ايوه
سيه
اغفرلي
النصب
فلقد
لاتخاذ
الضحكه
الاستعانة
العاطفية
نراه
اسئله
وأنتم
##ory
##نزير
رادو
بالتن
الكنيست
fil
التحرر
والقوانين
نصره
تتسبب
النبض
بأسلوب
نحاول
زينه
الصوفية
سوازي
رصيدك60
##متكم
DM
ann
لرئاسة
ستان
يلبس
الجهوي
تخبر
##غاء
البارده
العصبي
##وطني
وللأ
بحجه
سيئات
يحتل
ربيعة
صباحيه
يخفى
##بوينت
بحل
وعروض
التمني
##لباو
لعض
المغني
ابيات
دورتموند
مكاسب
حراس
أعين
الفرن
الاعظم
المصائب
##ذرت
##فته
تعزز
تجاريه
الإنفاق
1439
بدولة
عرفة
##مرا
رمضانيات
##ميدان
دح
مستجدات
نتحمل
اقب
الرمل
سيرين
##ويلها
والاهد
اشار
##قدا
شرموطه
هروب
الصراط
وحذر
##انيوم
فالص
نيتك
الجاهلية
للمطالبة
وقرر
التأهل
فعليك
هواك
لتطبيق
دواوين
إضغط
الفعلية
عاشت
تستعمل
المؤقتة
الفلسطينيون
سفاري
##ower
نهى
ياقلبي
##حرية
الحرمان
الكادر
عدمه
##ماسك
المنصر
بشركة
واكرم
ميه
جروس
##طاحة
تلاوات
هرب
ومجموعة
##وسفي
النية
ليبرمان
حصوله
سجاد
والأسرة
تدوير
سهيل
##نتيجة
خلية
أفك
##ages
اعني
##ement
rec
أوساط
لاق
بالسعوديه
رضى
وسخر
احتساب
فاعت
أفر
الرسيفرات
الدبلوماسي
##erry
##erat
ماشفت
##طاوي
تلاوه
نبضات
الفعلي
جزائرية
ياجماعه
ووقع
بالجزائر
##جماع
##نينا
بصح
الجارى
النبى
كاني
وتحليل
الاستعمال
ليث
لدفع
خريجي
انجليزية
دينهم
حسابنا
##ann
##روهم
وحلف
خلفا
قضي
السينمائية
السياسيه
وكتبت
يقولوا
بفضلك
##أر
##لاميه
##رموك
نتاج
والتكن
تيس
##يدية
الفانز
قرعة
الكروات
عايزين
المبادرات
بالمدينه
الأهرام
يرف
##باسات
التكييف
الوطني44
نجل
ويصبح
وقوة
الشق
النشيد
##بطه
##قلاع
الوقوع
##ودى
HTML
بتب
ركلة
والطلب
بإصدار
مئوية
ac
متلا
والغرب
والجماعة
مسبوق
رؤيته
والجغرافيا
Nokia
السويتش
وصال
خبز
ارتاح
للاجئين
النخبة
أجاب
عونا
المترجم
ياعم
ويشارك
الفضائى
بيسو
وادخل
فخذ
صلح
##EM
وادم
انسانه
نبقي
الانتفاضة
##فوقي
##iss
1200
1962
بالكثير
للعودة
المعلوماتية
والمأ
ممتع
عنزة
الكوفة
السقوط
##وارض
3000
يكر
العرق
ألماني
فكانما
مشاعري
®¤
1983
##ذكاء
بالشر
مبكرة
بنغازي
احرار
وتركيب
اتشرف
العادل
5000
سحاق
التصنيفات
توماس
##لامس
حليف
الشركاء
اسلحة
##سكرية
وعائلته
فأجاب
##وليا
اخته
الكأس
والاخلاق
طوله
والكسل
##واتها
يحلم
المنصور
بذكرك
إذاعة
فيرجى
الجوهري
يكتشف
انسحب
متوفرة
احتراف
##RL
مرتفع
الصفراء
ومرت
سفارة
أجرى
##وائق
جلو
الديار
جعلته
أبعاد
روفر
شيبة
Sun
دياثه
بكثره
بلص
اشارة
الجادة
##plications
فائقة
بعلم
تكرم
دلو
قناعه
روماني
الطبيعه
مراسم
##اثير
##شام
حجه
وخالد
قسيمه
إبداعات
تلتقي
بالمال
صلاتك
بليون
الظل
تشرق
السمنة
لوحده
الموروث
bl
المضادة
##مدن
##وازنة
متحم
فداء
زخ
ضباب
مراره
والإرشاد
ومضمونه
صحيف
سئ
الجماز
وامه
أكرم
تحتسب
ومال
وضعي
لعن
ويضع
والرب
لبك
مشغل
##1594
حادة
العلميه
اتقوا
السياسه
وإخ
##وثيين
حالها
##هانة
فخامة
##كوك
الإفراج
ناسفة
وفجاه
MK
ترجمه
##واتهم
##شتاين
والاك
##قلون
الاشتياق
معظمهم
115
الشيخة
كلماتك
محطه
وليت
اخرها
الاشتباكات
منتجع
وستنجهاوس
قدرك
الاله
فضائية
بعدهم
دجاج
مطروح
لتنمية
##651594
وغياب
القادسية
نقف
الاموات
تطول
الصحابه
تأمل
تكرر
##جيني
الغاني
جنان
اجبر
يبني
Download
إريتريا
إسطنبول
بلغة
Islamic
ونساء
فبعض
ارحمني
##400
بالتجزئة
ستيشن
الأثرية
محال
مخال
##رفات
غيمه
##ينيه
وسهيله
بالعديد
المنتشرة
قراره
العاجلة
##روسة
مزايا
التفاع
تحمد
نجاد
نامت
وترت
تجلس
##افح
تخيب
وهؤلاء
استفاد
الصعود
##وريين
البان
قولها
اصحابها
ترجمات
تهديدات
والمنظمات
اعترض
الأسلوب
الاحسان
وأحد
بمحافظه
الجاليات
أئمة
عليكي
مصاريف
تقرأ
##ضحت
##كسجين
تجرى
اضم
##ابيه
القهر
ويكتب
أكن
لصناعة
أرواح
بعز
أميركية
هلو
ثقيلة
المعمول
تاريخيا
فرو
مستقبلي
يهزم
الأضرار
##باخ
تجعله
وجوههم
باولو
جدير
تجميد
يريده
الخطي
Apple
ويساعد
الخفيفة
##وريات
حساس
##صفية
تحضر
مشروبات
##كهة
التفاح
الشديدة
Des
فطره
مصدق
لعبت
##زازات
فضيحة
الخالد
وولي
ذنوبه
كفت
بلبنان
تخي
##ade
##زعة
اوفر
الرومانية
المصرفي
نشرة
اقوله
فيجن
والصرف
المجهول
آر
فنيا
نزيف
##وياء
التايم
للاخرين
##ميق
##صاعد
##ركته
المخاليق
بحالة
النيج
ومستلزمات
سلبي
دراسية
##VR
نأمل
حسنى
عساف
اليتيم
المتقاعد
المفهوم
سته
والاض
بله
والمفاتيح
##صروا
ثقافي
مشاعرنا
بشراء
منسوبي
##روال
وطالبات
بينيتيز
ديزاين
لامر
وينه
الخطب
صفه
الناتو
##ظور
بتحبه
لمحافظة
والتنسيق
الدوليين
للمشاركه
طرحت
تؤيد
شهرة
اليرموك
qu
لخدمات
care
حجمه
اطهر
واهلها
نبارك
وبركه
التساقط
لئلا
ببناء
أستطيع
والعا
تهمة
النظري
وتظهر
الأبراج
وكلي
نادره
الدلو
المحتاجين
IPTV
والخاص
الحداد
الانتصارات
افخم
بوقت
حاضرا
ذالك
خصص
البطي
حفله
أمية
فيراري
والطيب
بابوا
ورغ
ومو
##عادته
05411
##زس
##يلها
الرائعه
تختفي
يصرخ
ومشروع
KM
الحسنه
رهن
باذ
بوتسوانا
##حوذ
النيجر
وغالبا
نعتقد
للإعلام
توريد
اجله
زهره
فوزا
وأطلق
كاي
يرتاح
الصفة
وصفت
##راوى
المقاصد
للمواضيع
ومحب
الطموح
غمر
وتعود
ساخن
الإعدادية
عصب
كفاك
وعسي
الأركان
فريزر
يراها
تقوي
سفراء
القولون
داخلها
##EP
الفروع
بنهاية
بالرحمه
البابطين
##air
Net
بهال
لشعب
تمثي
العابد
بزياده
وسيد
ماتب
التركمان
##mb
الحركه
العنصري
المسافه
الابرار
غذاء
التها
مجيب
0020
الاندلس
تنسى
يأمر
01145
أوروبية
البدو
وخدمة
تبخل
أرجو
ومساعد
يجعلني
##تمت
##les
وفك
تتس
المنظر
الجوزي
متنوعه
العمومي
جمهورك
ناري
للتعبير
وقائع
المدونات
##نتان
وتشغيل
##crip
##صفور
##جيلات
سارك
التكنولوجية
الأجر
حية
المتمردين
باقت
اللؤلؤ
الباردة
##فليقة
المتف
##امو
منعت
##ازم
بامتياز
الشريعه
الرضاعة
السوالف
والقمر
الدقائق
تضاف
والغير
##جتماعية
سوهاج
سيخ
ترميم
اثبات
##ريدي
للبيئة
يطيب
°°
استرا
##ئهم
##طيس
للتحالف
رائدة
خن
الشد
الأضحى
المدح
ومستقبل
يعاد
##راعه
ass
تأك
##ote
مواقيت
وانظر
تخليني
الاستف
##للص
الصدارة
الرومي
لأماكن
شنط
ed
##فاكيا
السنيورة
مايج
##آلم
والتوزيع
معاون
تغطيه
المسرحيات
اوغ
الرفيع
جماهيري
يرمي
بلنتي
ابوها
ميزانيه
##جوا
##ليفون
اناقه
بدليل
مبين
يؤخذ
معيار
ينف
يذبح
كريس
اظهر
واتخاذ
ونشاط
##بدة
الأعوام
##وينا
##ثاء
المثالي
EG
خلطه
##سارة
تعميم
زله
##قلات
يصد
للتاريخ
الواسع
##ices
دوب
يغضب
حمراء
شفاه
##كاني
يسد
والاعمال
سنان
##كورا
بربك
##قفال
ويستمر
يستضيف
يكونون
##كسات
ياصاحبي
اذان
التشريعي
##طاني
يلاحظ
المشتركين
ويعتقد
بتطوير
الحامل
الفنانه
بالموضوع
مركبة
السط
##درالية
حفاظا
المواصلات
والاحترام
##معة
ستقام
للعديد
##يادته
مخر
نفر
وكبار
عابره
المشروعة
تنفيذه
المستثمر
شنودة
لانقاذ
يصوت
##ائس
المتنا
تشويه
##MW
والسينما
المجمعات
مجلات
جمهوري
الأندرويد
رأينا
انشهد
##فكر
المفيد
وبينه
إدراك
المزارع
السواحل
حبان
مستواه
الرص
الضابط
تزرع
الأغلبية
المراجع
متحرك
الإستخدام
##راهيه
Ed
اليق
منعا
##خراط
وطريقة
الإستقلال
اجتماعه
القنصلية
تعالوا
لود
المتعب
قمع
كوفي
رفاييل
إيجاب
##كتئاب
متخصصون
الاحتفالات
AB
الابحاث
بداخله
05411118
شرعا
فوكلاند
فكلما
زهور
المفاصل
شحات
سلمي
111
ويرفع
سناء
مناسبا
انقطع
##انيت
##BP
الإجتماع
يتب
والمشحونة
بالأمر
عجبا
والحين
وشعبها
استراتيجي
##غيان
عبايات
سكع
حالنا
نفحات
فمه
للمساعدة
الإسرائيلى
الحيا
##أسها
تله
العمليه
والحن
الإختبارات
ارشادات
تكلمت
داون
للتعرف
اجود
تسيء
الشافي
يخرب
اطعم
للصحافة
وكنا
يعز
وتناول
ضرورية
ماعندي
##ذاهب
مترج
هائل
والمزيد
ترتيبه
آم
يره
##رشي
كايمان
الأسترالي
اخضر
التحرش
الأهل
رواندا
حافظوا
موب
الصامت
##لاندا
الغنم
القاء
الرئيسى
لته
يدير
##وريس
الجلال
عبره
بالتس
##ull
والتعامل
المزار
غفور
السالفه
طوق
##عوى
بلط
بابه
وخلي
##وفيه
للصور
الاشارة
ابغي
##المن
##صريحات
ونحوه
الأرواح
والفوز
الرقه
الاطار
Comp
##oshop
##212
مجوهرات
راغب
الماركات
ولاسيما
تبون
المحادثة
##ID
بوسع
##RR
ضمه
ضيا
والضحك
الكاريبي
بتحديد
حوائج
##غشقر
يوصف
صاحي
والنهي
جزاكم
المتعة
الممث
مظاهرات
والعنصري
تولد
شلل
##كرات
##حيا
المسئولية
يطرد
Wh
##وقين
الاشتراكية
أنمي
فالس
أسفرت
مزع
فرك
##اعف
مستغ
مجربه
##أجر
واحلي
ورؤساء
##خيرة
عينها
المتطورة
##لاي
يحتاجون
غش
لتك
حمزه
للمستخدمين
احتجاجات
جبيل
رمزي
والبحرين
##حتاجين
تنقص
##جعله
بارتفاع
المراقب
الثع
ثمار
بسيطا
##قتان
نشتري
العظماء
تاخذني
شيطان
مغامرات
بالعودة
غلاب
منظمه
والقوى
تعرفون
إرهاب
حلوة
##حواذ
المحال
جبت
##تبع
سببها
ماركت
TOP
بصيغ
قهوة
والسنه
قولت
يشع
الدرك
زينة
حسنات
معط
أفعال
الحره
قوقل
زيارات
##طفات
آلآ
اجرا
الصياد
روحا
بوصف
تتواصل
يرا
غلي
المتصدر
الناب
##وماتيك
الإسماعيلية
الختامي
##لاءمة
وبقيت
جنبي
واهتمام
عاملا
ينافس
قابوس
نووية
كامكس
كورس
رافي
بطب
وجدوا
##وكيت
ياغ
وارب
ادا
اقنع
أعمالها
وانتهت
بنفسها
بجمع
عنق
وليا
متاع
العائلية
الأنتيل
لهؤلاء
##ستهم
بحيرة
عواد
بانهم
ارا
المفقودين
خفوقي
فعلها
مزرعة
الفروض
مشكلتي
المراقبين
الطاغ
##RC
##وبايل
لقضاء
البروتين
زملائه
اكثرهم
تحتها
اجرها
مكم
لمنا
دقه
تدافع
##رضى
##VE
وتوقع
مراتب
##قراره
ترحم
##صاح
102
المعلمات
والفساد
وتؤ
التصرفات
لرا
Sky
يكتمل
واهلي
نجا
مفصل
والمسي
الهيد
التمريض
##ايات
نقدية
الهولندية
##atch
توجيهات
المتواصل
وعنه
ساي
##ازى
سرد
تعذيب
بقصد
الأميرة
اشوفه
طمانينه
الأوعية
احتفظ
HK
كيت
##اغواي
##iel
المنشور
الاضافات
اللص
لحالي
تنتمي
المشاهدة
بالسوق
وللت
نتح
##راصير
##اراغوا
كامب
وباذن
بمقت
الصمود
##غلون
جوزيف
الخمسين
المعمارية
وكسر
##رابطة
الطائفيه
المثقفين
حدودها
الاسرائيليين
فيست
الافراح
##وليس
النظرة
ويتحمل
وقلبك
اغلق
الإسرائيليين
القيود
محاس
والسياسة
##شارد
تستاهلين
خوري
Mar
الخا
والمعاهد
وكس
والاخبار
وتغير
اسعاد
الدش
الطن
الارب
صحبه
للعق
##خيلك
جبير
##ريدا
##زيما
الطفلة
البلاستيك
ياسمين
فاتح
للسفر
الافراج
ht
لافتة
أسد
حصاد
##فتين
وسك
تحرص
us
الأفريقي
ادعاء
الاداريه
يسعي
##غيت
الهوى
الاهل
فريقا
الجبن
تغييرات
بنود
واتمني
لاتحاد
القادمين
حزمة
المركزى
باطن
##قبه
بقضاء
الاخوة
ندري
يتناسب
لرعاية
نقاء
##عادتها
ترينيداد
ودعاء
البلاغ
et
ويبقى
عشانك
نيران
لشئون
يعبد
شيكل
السائد
انهار
##خلل
##نكار
##603
تمد
الحنيف
الميدانية
##آل
هدد
الأعشاب
##وهام
##التها
الهضم
إظهار
حلمت
الكاب
الخلد
شبيب
حالا
المنط
##ستم
لولو
الثمانية
##بايا
لحسن
ميقاتي
تنسوا
الضرورة
بالاعشاب
##ivers
##رائهم
ووجود
##ناا
معاناه
نوبل
اختاره
العنصر
ثامر
##هاية
مختارات
##اريك
##سايل
الاقليمي
ينقطع
قرضه
حفرالباطن
##عته
ليسوتو
##ثنى
واصبحت
وحس
الحلبي
مايا
الطاعه
علاقته
فرضت
فوا
المبذ
##زعاج
##ابيح
ويترك
##عاطي
التكلفة
الافعال
مقتنع
ماتوا
0541111810
الرومانسية
103
##واتو
القضيه
شريحة
الرازي
العامين
مضيفه
##قهم
##ولوا
الاصابة
gu
كابول
جميعهم
وسيت
الرابعه
التطوعي
والمعت
العبث
تسعي
النقض
والرد
##همك
##زداد
##يزال
email
جريده
##قلاب
حرصا
دعوته
لقلبك
بلوتوث
##حقه
عائد
موحدة
استغفروا
##انيون
للخير
هوت
ايمانا
الكيوماكس
وظل
الياء
آخره
ضعفي
كاون
تفع
أساسيا
مهي
بيبقي
ومقاطع
للسكان
المساحات
متاجر
وفرج
الآلية
شواطئ
صغر
سريعه
##دمج
رسالته
حماه
المباركة
بالاسفل
الفرنسيين
علئ
المقاعد
تغادر
البيئي
قوام
دفا
الابتكار
الشجرة
تعيشها
كرست
الإرادة
شخصيته
##سترا
للتط
مستوطن
الجافا
ومجرب
لتشجيع
ابتلي
##ارقام
شجاع
##عرفه
المقاتلين
الباري
والعلمية
مخيمات
مبادرات
##عدامات
التركيب
بوتفليقة
1973
تشجع
التشك
كادي
##زهة
الهزيمة
BD
وقود
للارهاب
دراجة
ونائب
KH
نود
والفرح
فأخ
نتكلم
الكاثوليك
##ورن
الحمية
العمانية
التوصيات
##ضيات
وقهر
ائتلاف
ههههههه
قاهر
إسباني
الزوجيه
##غفرت
تشهدها
المحاور
متل
لبلد
تحيات
يهمه
والبخل
ازعل
تهدي
جوزيه
الغابات
ذكور
طفلة
الاجتماعيات
الطائره
قدامك
بدايات
نانسي
##لجيكي
##وارق
المستع
المستوطنات
اصابته
التهن
افادت
الزنا
مقبل
وجدنا
فلسطينيا
احتراما
ثمه
نتج
1984
##WG
العنب
شاركونا
امنية
بتصميم
##SAT
ابتسمت
##كاه
##انته
لعله
موقفا
##حمت
بالقرآن
##ضره
وتضمن
المجاري
المحاولات
سيبقي
انتشر
##سفي
جلست
جرحك
مجيد
للأسرة
اخيه
واربح
الأغانى
وتمكن
الموبايلات
ومواد
نيته
جسدك
وأمن
##وريد
وعنوان
سكينه
##811
الجرحى
الأميركيين
لطيفة
إلت
باور
الابرياء
##ليمان
طاعة
عوازل
عزتي
رابعا
يحميك
للحرب
##قني
##نتهم
الحلي
للموسم
بالدور
واصرف
رمزيات
##وانيا
الكرواتية
##زئة
باخر
احتفالا
##ضج
##idae
واجعله
المزعجة
جاهل
السطور
شعبها
##ولونيا
بستان
صحته
حاسد
يموتون
خفف
##فش
الفيل
الباكستانية
##ميلات
باااك
اليوسفي
لقرار
وأغ
تليق
##ضاها
اتفاقيات
الحوض
مقابلات
##طرب
الحذف
للنبي
تنطق
ومره
##ضول
وإسرائيل
والصحه
الاقمار
##غره
آت
شجن
خرائط
بتي
¤®
مساحتها
بتسليم
Book
وكافة
مخلفات
AMD
الإرشاد
يرافق
بيتكوين
##92
ضفاف
##كاغو
لخوض
تعترض
مسيره
فمثلا
والسلطة
غنى
العداء
عوز
##عارات
قنديل
وجي
احتيا
فيينا
سرت
الإبداعي
##زيج
قضيت
الدفعة
##سامي
البنود
##وائب
فاتحه
وجميل
فرغ
وعقد
بالسين
النفوذ
المصاحب
خزائن
وتوكل
مترو
امنياتي
اجاب
والطرائف
العاقل
وينتظر
##زقة
خامس
يقدمون
مسرحيات
مصعب
خدماتها
راتبه
شاهدت
الأنبا
DREAMBOX
والايباد
بشك
##رتهم
الاهالي
يتدخل
تحيط
ارف
ويتوقع
القصوى
يلتفت
##قلل
والالتزام
وصلك
أدم
طحن
لاتحزن
##اليت
مساعده
التكت
اليسرى
اسس
واعادة
سكربت
##عوبة
والطفولة
فتكون
وحكوم
تكفير
##شقي
توكلنا
117
##وخي
للمقا
التذك
لتنظيف
##حتين
عزوز
##فعش
الاندونيسية
السكانية
MS
اشتقنا
حارب
رقمي
يتحكم
صديقة
العالمى
خلط
خطابه
المتد
BW
وإقامة
وتصبح
عبدالملك
الأجن
ونتمنى
حيه
طيفك
بالحديث
ذره
كوميدي
لجماعة
الادبيه
عائلتي
باليمن
Galaxy
ندم
قيف
وتوباغو
خاصية
التلفزيوني
الوفيات
قبالة
واسعار
الورا
مقدونيا
والليل
صوتوا
العمرة
واللا
الملاك
بحياة
اخطات
القبطية
والأش
ag
دولارات
وتغيير
و20
##ضرر
##طباع
جورجي
الاحبه
الفنلندية
وروايات
ديمقراطية
الهائل
إلح
النعمان
الهيكل
قرآن
وقسم
ضمنها
بريك
ننسى
##ini
النقابية
بصمات
بكتاب
اهدني
مفروض
وذات
الشيخوخة
إستخدام
حققه
إنجازات
لمواجهه
لأعضاء
الكربون
التربة
##ضانة
##ساقفة
الفرض
تجيني
الانفاق
عزيزتي
##ize
##حيلان
مواقعها
NOK
##ديز
##حملها
الرحاب
Cont
##لالا
ترو
بالرد
وود
بعمر
وتبلغ
لدوله
و200
##زها
الافغاني
والسيرة
الوقائع
متهم
##رائس
مقومات
##INE
الرامية
ننسا
##وطي
الزجاجي
والدراجات
العملاقة
بالحكم
ويقت
المساس
الهادف
وارتفع
لنس
جهه
##نتا
قرون
##interest
استعرض
المؤسس
الأجل
الانتحار
منتهي
أوف
سيش
محتوي
واقعا
لاجئ
##لواء
عسكريه
هاتفي
بمنطقه
وأفادت
لوي
الانتح
والمواطن
دراسته
##ثون
العمق
القطارات
بالمص
وبعضها
وأحيانا
##فراج
آلام
المعاد
يسهم
الصحراوي
موجودا
بالبر
يحرك
الجايه
تعدل
النشور
فإني
الكراهية
شابا
المحسنين
##وووم
اها
قروبات
عاقل
لتتمكن
صاروا
لاعبيه
تقاطع
الكوارث
الرقي
تحتضن
الهاردوير
المعيشة
الدواسر
شفتك
سعة
##كما
والخلف
حريم
ابش
البرب
الكبرياء
عو
دارت
واسرائيل
خائ
##سندر
مخز
وارحمه
سامحني
##ick
تحرمنا
صفقه
الخاد
سوءا
##ens
مثلث
Techn
##امنه
##سنى
قارئ
شوفتك
ep
حشيش
الصدف
##ern
والعص
سى
قلوبا
لنه
نسمح
تيمية
ثماني
ولعب
المدرجات
الأنف
##ارون
لسم
الغروب
ذكرا
##ابله
الزنج
الزمني
وبج
##😂😂
وورد
وابد
اخو
لبطولة
وأبرز
يقودها
يوجب
نيكاراغوا
المعارضين
لاتن
يعجبك
كيفك
##سار
داخليا
الإخوة
##كتبة
تايه
يسعدني
موفق
التشريعات
وبيت
يستغرق
الأقباط
وبلاد
تال
يترتب
الدني
غدر
التفجير
ملو
##قطقه
الخيانه
وترجع
المصريون
مابقي
الحبيبه
##ضاعف
الاسلوب
حضنك
نموا
اقوم
##ظافر
##هات
الدورية
والسودان
##بتسم
الانقاذ
الطرح
التوراة
##حايب
ومحت
الأقصر
مخدرات
تاخرت
تقوية
ومشاريع
ورجع
كربه
تساؤلات
صححه
ولام
##موحات
وهايدي
وبعيد
وتطبيقات
التصحيح
مثالية
فانواتو
لمعان
الفيتنامية
##مود
بأهمية
الكافرين
متمنيا
صمتي
بلقاء
##يزو
SZ
والتوفيق
وسيم
الصراعات
حكمة
لمخ
لشيء
ونسي
بقرب
لعشاق
الطبقات
مذك
شكاوي
##ولنا
ذكية
النزول
احترامي
والطاقة
للاتصال
##وصي
##مائه
يسري
##ظيمي
ذاه
نشأ
يحرص
الانهيار
##متين
يؤلم
##خون
بدار
خبرات
غنية
قانونا
لاستكمال
والفكر
الحطب
واسال
جلاله
تتفق
يعترض
انتقادات
أبدى
ويطالب
وصلاح
فردي
الصقر
المقيم
##روليه
احتياج
رصيدك68
الأجزاء
الذيب
##حبها
للسماء
##نيطرة
جنبا
##باطل
##هري
لصد
ضعيفا
حنونه
##رسه
واللغة
ويدخل
جنين
##ماطم
مركزي
ونوه
مختلفا
ابوع
وعدت
##tv
فنانين
##فيضات
##700
سليمة
النقر
التنظيمية
يحظى
المقبله
جونز
الشطر
ثرو
برنامجه
النابض
الإدارات
تناقض
احيا
مافيش
##ونين
التاج
صومالي
##لوهم
طريقي
وبع
ستظل
وبالرغم
ونادي
تعليقك
عيار
الاحرار
الغار
##line
الراش
النافذة
مصح
##سبورغ
الإرسال
##ضعة
##بيدي
ونفسي
##حمن
وسعيد
معتقل
ثنائية
##جرون
والمساواة
تتولى
بمديرية
أناقة
##مانيه
##PS
بمنت
##ووه
البلي
يطبق
تحبك
الأخوة
توسع
##ايغ
نتائجها
مغلق
وانسي
مقدمتها
تلوث
اتمنى
إدراجك
##ولاده
##وامع
نورك
الاميركيين
##لمرت
الخنازير
رخام
يوضع
مملكه
والمرح
والكتاب
##اعش
Web
باكستانية
بالاحت
119
عروة
##راسي
القناعه
لعظيم
##ومها
يتواصل
للجدل
بمخ
۩۩
اوضاع
اعطال
المكرره
يزول
بمشيئه
حصان
الاذاعة
##بيوت
منزلها
بشده
Av
##MAX
التغلب
نسعي
حالتي
رقاب
وخارجها
دردشتي
اللوحات
اللواتي
غب
عبود
المرجح
ستد
أثارت
لاعبو
Pinterest
معتمدة
العصافير
محارب
لمنتخب
حقيقيا
استقالته
يشفي
والعقل
الأولاد
باراغواي
اقدامهم
الإيجابي
وارحمنا
آخرها
الوف
هذة
احبكم
أوامر
لأنني
8A
يستجيب
والجهات
واللبن
بحت
استئ
لبر
هالفتره
ليستر
عاجله
الحسون
وظهر
الجعفري
إختبارات
##رتس
ماتدري
والأطفال
فنا
بيح
الإضاف
العزه
##مصادر
الحرارية
حيوية
الكائن
BT
Adobe
يمكنني
وطلع
خصومات
##جزر
مقررات
ايامكم
يجدد
الالف
دراجات
فيات
كبد
ويشير
الباحه
##نفذ
##هرت
نؤ
المصلح
هواه
ضاح
تحويلات
مفه
للعلاقات
Forums
##ميين
السفهاء
بحوالي
اتغير
إستراحة
المصم
ناخ
##وجرافيك
الاقتراب
النجمه
السيئ
المشتاق
##uter
الهجري
لمراقبة
صمتك
سيطرت
نابولي
رسميه
##وابق
راية
للخارج
مكونة
##الكسي
ولاه
بذات
منظور
تويته
بالشرق
تابعه
باربي
إعجاب
حدي
لونه
ماجه
تلتفت
بحقه
الألفاظ
##ساه
دوريات
وارجع
انسانا
##افق
هيل
خلت
للنقل
والبرد
ستايلات
اقولها
وتنتهي
تورنت
Samsung
اسرائيلية
##وافذ
التجربه
سمك
Box
الإنشاء
اخسر
مصاد
مزيج
والمؤمنين
سكني
Res
الكوفي
تعارض
المقداديه
الفاتح
وراه
الطاز
##هولم
المستقلين
اعتصام
يهودا
والرضا
الناقلة
##سترو
غطي
الوعود
لطيفه
التلمي
والديه
رتب
فاتوره
بائع
غادة
ابنا
وشخصيات
##قراء
والوقت
نكن
تكوني
واسمع
زلزال
المستضعفين
البؤر
##طرح
لشرك
السرقة
الرقبة
##und
##ستيكية
تارة
بمه
اعيد
##اسه
اضيفك
##نيوم
حلوين
##اركوم
للنقاش
إمكان
١٤
والمراكز
الانفصال
والغني
اوك
الالكترونيات
الجلوتين
##اام
واستغفر
يقي
كأنها
اللاعبون
فاخ
##دحام
تقتصر
يحاسب
##مليون
للمدينة
لقوى
وارض
##زمات
المرفق
##صلح
العباره
صاير
بنوك
رأيك
والعروض
##جلي
##غادر
العريش
تعق
داوود
الاتجاهات
هاتين
##مته
الفيلسوف
يعتذر
عشيرة
1977
بالمجلس
وصيه
وبسبب
المكتوب
التحويلات
والادب
أحق
فراس
تلع
وليه
الشئون
ستع
آلي
للمواطن
أرضه
العقبات
المسلحه
باهتمام
يتضح
##بداء
##ولال
كئ
التواقيع
جايب
قاص
الفرقا
الفراع
بصرف
facebook
لكونه
والسيد
مغربيه
مسجلة
ايامك
الناصرة
مايعرف
##ضاح
ناوي
فيليب
توشي
بابل
الصالحة
هاري
##صوره
##نتائج
##باحه
الويندوز
الامانه
##امد
العائله
##ونسكو
##أسبوع
مشددة
يعلمه
##عارضة
واستثمر
تصفية
القاك
والثقافي
بتنسيق
المراجعة
لقول
Mus
سماعه
المهرجانات
همومك
واسكنه
تسريب
بصحة
ستست
الحدي
نشطاء
شبرا
اخوكم
ظله
التابعين
##رمني
البارسا
نسينا
ميعاد
والتقني
تيمور
الاستد
وابشر
##افلات
الأمومة
##وفيت
ازرق
الودي
مهره
الظنون
براحه
منخفضة
حاجتك
تعاريف
الداعمة
الاقتصاديه
الكفا
أجمعين
تنوي
مضيفة
تسأل
تستغرق
ويكي
تخالف
البب
الخامسه
##لاوه
##ادجي
استايلات
ضمت
ويشمل
تدابير
##باش
المتبادلة
نومه
##سمي
سولا
التفوق
مستعدة
سحق
##غلت
وتراجع
##لديو
بكري
فرط
يحبها
الحاضرين
كهربائي
فعلته
مساكن
احتجاز
سمعة
دانيال
بجنوب
السيناريو
العامري
الاعتراض
حقوقه
الماركا
الرومات
ثقب
عمادة
عبوة
سرايا
قوما
الاستفسار
لخص
الهضمي
أكتب
قاعه
العيال
مطلقه
للدور
##وسيه
والمشرفين
##باغ
الأليفة
يستاه
للبرميل
ورسولك
تسلط
جغرافيا
والرف
مواق
وحجم
##ماي
شيرين
حمادة
لانو
إعدادي
انكر
نعطي
للبرامج
تساعدك
الديو
التدريبي
وقدمت
والابداع
موريتانية
والسرور
الوظيفية
##رويجية
وجودي
الصداع
نيف
للسيط
وحيدة
وذاك
المبدأ
##ينسيبي
تار
فاكثروا
مسموح
##آإ
المنصوص
التغييرات
##RA
بإلغاء
والاقتصادي
لعلكم
والموضوع
قطره
##ولياء
##غطيه
البلاغة
تمرين
##مجة
يتف
الجمعيه
وعت
هادئ
ارضاء
الإستراتيجية
##العدد
##الوريا
MX
شتات
ووسط
فكرية
باقيه
لافروف
##يريه
والامل
حفلة
ثع
وهذي
ودورها
##خالد
اللعبه
##شني
الاعتقال
تهون
##ستك
تتمناه
للكشف
المميزات
اثق
بحبه
هاما
مباراتين
عان
الصغرى
ودروس
وتقع
واجهات
البريك
السرور
ستائر
خديجة
تليفون
الصحى
##ريمير
الشفافية
حزبه
الصغر
ارسلت
##ضييق
##زنك
يدمر
علاجه
الإعدام
الاعراض
محظوظ
المتحدثة
واعضاء
مؤمنا
والمز
##جته
واين
ذها
خشية
افض
ريان
عديد
اثيوبيا
ارهابيا
والأناقة
والسكر
new
امتدت
الاعلاميه
المخلوقات
ونجح
ثمنها
تحقيقها
##وطين
ازاء
##بيرة
الحيوي
والجوالات
فيف
الحنفي
والقلق
موهبه
##زنات
##ؤكم
مبتسم
زميله
يقلق
واستمرار
عتي
اقصد
صلبة
وعجل
Smart
مقترحات
للبح
واحساس
ويعلم
عصابة
طوارئ
تفاؤل
الانساني
لوحدي
توليد
وياه
الضباب
نمشي
للحق
مفاجاه
Fr
مكثفة
##com
##يسا
بالاحساء
إندونيسي
مواكبة
الوزاره
الحيل
عينيها
وفريق
التعبئة
##work
المولود
##ثت
احبابي
رغبته
التشكيلة
التقط
اسلم
القمع
محكمه
فتاوي
بالار
العرس
غيث
ويمت
##يلا
##بيلات
بشارع
تصادم
انخفضت
جرج
اختلفت
##عوب
##YP
المنك
الاصدار
##ابري
علنا
ومسابقات
والرجل
المتحدةأ
تركها
ومدينة
عفان
الأرجنتيني
##زالت
وصالح
بحس
التخزين
ونن
يتسع
شراحيلي
تغريدة
السلي
لفي
لناس
التشاوري
تلفزيونية
خانة
الشهور
تهييج
النسيج
فهمي
للاعلانات
##لسون
يلجأ
لأداء
للسيد
يتد
ويحقق
جزاك
مغرب
وإنه
تخطط
و1
مدربا
عتب
أوبك
واخلاق
الدعايه
اثارة
##جارات
1981
للاعلان
المتاجر
محض
##ليجرام
تنح
كلامهم
موظفين
توقعت
حذرت
أرسلت
اليوناني
قدرتها
ديسك
##وجها
علميا
يفصل
##لوين
أشاد
تعديات
اللبنان
اتجه
104
طاج
المردة
واحفظهم
يتقبل
نصار
##ones
##ريها
بالريتويت
براك
الفقيد
##وافز
دمه
تميزت
##ينز
طمع
المغفره
الوفي
مابيل
برهان
تغرق
للمحافظة
##وفسكي
المعاناة
استراتيجيات
لإست
##WD
وبحضور
والعنف
##ats
##ردام
لاسرائيل
##لوكة
بفوزه
الجغرافي
الكلاسيكية
تتهم
اشتيا
الموديلات
وتأمين
١٢
الشده
الصادقه
بوابه
منظم
تعذر
##ختصر
فالن
بالتدخل
وبها
امطر
تفصل
يلعبون
شائعة
فوالله
حسي
كريما
مسيحي
ترمي
خاتمتي
المزمنة
المسافرون
والعلماء
جرينتش
قفز
الإغ
الرؤيا
اختارت
##صاد
اليوميه
المستقل
وعلينا
روعة
الثقافات
ألو
لاكن
##وثه
بقرية
كفيله
تتخيل
البنى
ياحبيبي
والعطاء
##EX
منافس
قصرت
سرح
تطبيقها
ألس
سببه
والسيارات
اعتق
اجلس
الحواجز
ثقتك
بالرصاص
والتخطيط
تضيف
لوب
شيخه
المسئول
فهى
##المبور
بالقدر
الحيوانية
ضمور
الطريفي
ومنطقة
والارت
تاكا
تخر
تالي
##لاتك
##ECH
هاذا
annahar
##متعون
Rec
مقرا
أوقية
##رامة
السعيدة
الفل
سعره
##ليكس
وتابعت
##راعيه
وبرينسيبي
ALL
والزراعة
يزل
الإخت
وراها
##بلوماسية
النقالة
المنف
##التين
الخلفاء
1434
السنا
المصنعة
##كنات
المفروضة
والديمقراطية
ثبوت
##اهدوا
الحساسة
الطرب
مسوين
شط
إنني
بكثرة
##نيابة
للعربية
الأعراف
##يناه
فاذكر
اجمالي
##raph
إخلاء
وانتظر
العبدالله
يطيح
والاستفادة
بالتزامن
هالايام
##عيمي
جهدا
رباب
##لائها
##خلنا
تضامن
الوصية
قسط
##فاعله
مخابرات
يختفي
الخلاص
والطرق
السنن
All
ويعيش
عميقة
̈°o
رايس
ومعت
مصنف
مستقر
##خامه
##عمله
فصيله
ابعاد
الشامي
والتجارية
هيروشيما
البدع
ويبت
الرسمى
إنجلترا
البلاي
غص
اضل
أعمالهم
والطيور
الديكورات
المدعين
اياد
نعد
للعاملين
بحاله
عجمان
للكل
التجسس
وايهاب
الايرلندي
الصحفى
قاموس
يرق
بتعيين
ديمقرا
يقات
وسفر
المعاملة
الجنائي
وتطلع
الصحاح
وبالاسحار
كنع
سهام
الكازاخ
تفكيك
اعرفه
يلوم
وتفسير
##ميلة
التحضيرية
وهلاليه
معاكم
الرفض
حاجتي
تزور
خيب
التراثية
للإسلام
##بيله
اصير
واللح
مسودة
الدرجه
##اشية
بالتج
الجواد
##شفير
صمود
##يلون
بركان
ترات
الانجاب
ونظرا
احسانا
ملاحظ
1961
والسياسي
بمسجد
وأربع
مصالحة
##BA
الفقهية
0A
ويطلب
بجهود
اللغوي
كونان
Fri
التواجد
الماروني
تصد
السليمة
الرعد
وعلق
##amp
والاتصال
المناعة
##ياهم
##صعب
ولكي
##مانين
أتم
لكزس
وافتخر
مباراته
رجاليه
كونك
نؤكد
العفيف
التعثرات
يزين
للحركة
افغاني
النفطي
بالجميع
السبا
توشيبا
##زنا
دبلوماسية
المناقشات
والمنطق
ننام
##ندسة
توصف
منحت
استيعاب
##تحت
قبري
تدعى
##بكستان
العنود
الفتاوي
الاشكال
مناش
وخاصه
##فاسي
فرقه
إعلامي
هادئة
مطمئنه
أنواعها
اللوز
##لافه
تبرز
ترفيهية
##باين
حذاء
عطف
##براطور
إعمار
والاخر
كثيرين
بطلا
المتطرفة
بتوزيع
نؤمن
صداقه
نشرتها
استب
وعافني
معلمه
وتعكس
##هدئة
تتدخل
حبر
بدبي
وقطاع
لقانون
ينتهك
NT
فأمر
ننشر
المعصيه
سبوت
للصحفيين
وثق
القاع
UF
سينا
تحارب
سعوديين
كمد
والقيام
متقدم
قاسية
##رتنا
سله
ولكنني
مقاتلي
بمنزلة
فاتورة
السيء
التشكيل
الفير
اثبتت
الفتاه
##ميلية
يسود
السائدة
##شآت
تجسس
يعارض
صعد
##ound
واصدق
لاجراء
اضع
اتصالا
حضارة
وجديد
إشارات
للاخت
قارب
الذاكرون
بالرضا
القياسية
##لابة
##bl
##قاعدة
مغت
برقا
واجعلني
تحتفظ
وبالفعل
للتحويل
كالعاده
وحدهم
المصطفي
والرش
بشرى
ينبت
متهمين
ركوب
النهي
بالحد
ويحتاج
عزوجل
الأحم
lat
والجبن
##راتيجيات
كوينز
مشايخ
تفصيل
فقت
متهما
##نني
وترضي
التنازل
لمرحله
##آمر
##رفش
##تهاب
##ساي
الرفاعي
تأثر
وممت
COM
ابيب
الماي
براءه
صوف
جراحات
الشرفاء
الاتفاقيات
تجمعات
المشهورة
عكار
##رمز
ووطن
فؤادي
الاندماج
بالاتحاد
##لدان
تجسد
الاصلا
المعرفه
طوني
الكعبه
البروت
##اريس
والعدل
للاد
بالعب
الوساطة
استفسار
كارتون
شتي
معلش
والوصول
بالظ
الجلدية
واثقا
خفت
لمسه
النبويه
يرافقه
لمكان
ارحمهم
البني
نهايتها
Sa
قلمي
عزك
Microsoft
محاولت
##قتني
●●
بارز
الإلهية
القبلة
مراح
المانجا
##واجده
زلنا
شوفي
مناظر
نوافذ
##91
المتشددين
##خالفة
ورتويت
ثانوى
الاستيطان
##gypt
والتعب
سلمى
##واجدة
وفنون
رقيب
راند
الاوان
##آآآآ
الكمية
امننا
##اخبار
المعين
النبطية
هيفاء
##غفرتك
صالحه
والشبكات
صدارة
الأمية
##لافي
يخطط
دعي
##تحول
مقارنه
112
الضريبي
أرجاء
المنصة
##بؤ
اضطرابات
وحياه
للاستخدام
قدامي
معبد
وطف
للفي
باستعمال
وكلاء
بسمة
##غالات
انقلب
عايشين
خضراء
##فوف
##غاوات
ومرئيات
تنف
وزع
اللاذقية
أنبأنا
تشا
ادعى
نحوه
##rivers
##ذنبي
ببيع
الاصابه
شوفه
سلسله
##sn
##لتر
البالغين
المزمن
يجيد
رمزية
القديسين
الارتقاء
اطفالنا
حياكم
لوق
##نائها
تالا
الواحة
الغسل
الحسنة
1956
0D
وتجارب
دورته
المنوفية
المحافظه
دائره
للجسم
المعتقل
البدايات
التكفير
ركاب
##نيس
منافذ
كرامة
استغرب
العيادة
فضائح
تسبق
الغباء
انفع
الوسطي
والقتل
بإمكانك
راموس
ثانى
الدعا
##anger
الممكنة
##يييييييي
أوروجواي
سمايل
لاسباب
راكان
وشكرك
الطح
واختيار
مديري
الاربع
عيليت
بالقطيف
الرغبه
وللشراء
والمكان
وضعية
دخيل
للمقيمين
##طلاعات
القري
الدوحه
المتكاملة
ريتشارد
IQ
##دهم
لحمايه
القرا
ومواقف
وثم
درك
المهتمين
هاتريك
الأحساء
بخمس
ميخ
سرقه
اكي
شموع
تباع
الموجودين
القطن
خف
أسماك
الفراش
فصار
وطرد
تعوض
حقول
im
لقلب
##ضين
بمرور
##ثاله
لتسجيل
التامين
ولايات
##600
منعه
يسيء
##ition
والنكت
ملق
##يفورم
الالاف
المسمى
عيناي
راش
الفلسطينى
بمبار
والحكايات
وطول
بدونه
الذاكرين
القبيله
والامارات
بدني
قدوم
##حور
مصرى
##ختر
مسئولي
##RN
##yp
بالسينما
وموضوع
يراد
الاسف
رياضيه
الاركان
والإدارة
يتصرف
الهوايات
يصر
الاطلسي
المستفيدين
URL
أشغال
و10
128
##مارسات
##يتور
##يلاء
##قاو
لقتل
مفتوحا
وسبب
الحمر
اللبنانيون
##نيئا
المنوعات
الصلاحيات
بديع
القرون
البسط
والنثر
الانجازات
ترشي
الكارتون
بيكو
##ضعه
بفرح
الترخيص
بالتاريخ
سيعقد
ماليه
التجاوز
لغز
الاعلاني
الأحرار
وكلمة
##روفات
240
##اال
مادي
سهرة
##افارو
##ماويات
والتكوين
الطبع
غربه
##ذيات
ودولية
مطلقة
الفرو
متتالية
بوي
فلبيني
متفائل
بجائزه
الاشواق
مؤلفات
تنتقل
قيرغ
للتم
الجاهل
##فرقة
مملك
والاستفسار
بسوريا
##افت
youtube
المنق
مكوه
مافيها
خاوه
سيرا
سائل
##بتون
الأيمن
النادر
بتكلفة
##رحيم
الحان
سلمية
وسمو
لفرض
هزاع
فنزويلا
عياش
135
المقامة
تغضب
المحس
ونائ
شور
والعالمي
افرا
يشتاق
الخزانة
تريدها
قنابل
MAD
الطراز
المدخل
بالسعودية
##ode
لغاية
##بعك
طاز
المقادير
بالمجان
كيوت
##حكم
قاعات
الترفيهيه
##ريان
شعلة
معقولة
##36060
المذيع
تمل
جذي
0114536060
فتت
موقفها
الإنتاجية
خلونا
مستني
المفيدة
جراحية
واهله
ويدعو
موبايلي
اخطا
دفء
ارحمه
ساوث
انتا
بيجو
شعبيه
لوحدك
بقطاع
1985
واعط
مخروطية
بالوا
والسؤال
الانح
عتبة
عشقا
Language
أذكر
##وعود
فيكي
المجموعه
المزارعين
##كرها
وحط
##يانغ
##اثه
واجتماع
##بيون
##بتني
للهيئة
##YN
مجاز
السودانيين
بإدارة
نزاع
والتخلص
والبحر
##فسر
بالإسكندرية
هيلانة
تصليح
المقربين
الجمركية
زيف
مثلهم
ولكنك
تفادي
عدوهم
أعوذ
نصير
قرطاج
يفقه
##بكاء
اذاعه
خصصت
القسام
بحرف
أفق
بالاد
هاتفيا
غوغل
##بيري
الوسيلة
انكس
المصيبه
##ZT
بالجبيل
اعطيت
تكفل
حرمان
##موم
بخت
ومساء
قره
ماحد
هزازي
##خوان
سكوت
##قطار
مصيره
##درجه
فمات
يسهر
وحرية
مقدي
الآسيوي
وبعث
آلت
##عيدي
الأقليات
وتطويرها
##ذكرة
خاليه
ريك
١١
نياب
خلدون
لهيئة
لاحظت
يخون
لولاية
بالحضور
سيؤدي
السموم
المقابر
توفيت
مجلد
ولاء
فتي
والصدا
البيه
يظنون
التيارات
لدوري
ساركوزي
وتضع
ومعنى
يابعد
##وتن
حملته
صباااح
والفعاليات
مفعول
B1
والمساعدة
قرص
تتناسب
خاطرك
المتقدمين
يفهمك
##اقبة
منوعه
البعيدة
والباحثين
E2
العارف
الضياع
قدها
مقاوم
والحقيقة
سعيا
لدين
مرسلي
550
والوقوف
وثي
##وليت
##رائر
الاسماعي
ET
لسا
بالقتل
سماه
ملامحك
ماريو
رحبت
ret
انض
107
لتط
القتالية
جرام
وفن
المبدعين
الذئاب
للجماهير
بيست
الشقة
والفا
الضيقه
##دادات
المجاردة
مشابهة
زوايا
والمحبه
##ذاذ
بإشراف
ندي
يرس
بارباد
##نودنا
تشاد
فاك
اعطني
##800
لتغطية
اثنتين
الواتساب
الآتية
وثلاثة
قرآ
للفصل
وتجمع
خاطره
مدغشقر
الفجيرة
قتلي
الكامله
##دامه
الاباحيه
2030
سباحة
المزورين
لبا
اؤمن
الورشة
خذا
##هيار
للرو
افرازات
جدلا
الايجابي
النامية
نيوزيلن
##ثنا
يخفف
أشك
##رائض
##تيمي
مهمته
تحطم
أنظر
يبك
تعوي
تجمعنا
يشتم
##للوم
مالنا
##كونا
عامله
والتلفزيون
لبيه
الأمهات
اليور
لمباراة
بعرف
خلاصة
وأمام
الظواهر
يزعج
الرياض0557824327
##ساخ
نشأت
واجمعنا
العظيمه
##رامل
اللوم
وشوف
باللقب
الإلكترونيكتابة
دش
تسحب
المشاركةالمشاركة
Twitterالمشاركة
Facebookالمشاركة
1978
##سرين
شجر
خطيب
العمرية
##اهرين
ميدي
ترويج
##مط
تزوجت
طرحه
نفعل
بعناية
رابح
شبابنا
##PR
أولها
صعده
##يرادات
عبدالحميد
للمغرب
لإنقاذ
Air
IDR
استغف
منصات
##اءل
الحزبية
السع
شرطي
العمود
بقربك
جناتك
واكدت
للمركز
وذا
الماجد
مدافئ
وبينما
المنشد
يساعدك
سلوف
##وهن
عكر
مصباح
الناجمة
القطرات
الجرافيك
تجب
هريره
بالأن
اعمالنا
هزت
توض
بينت
بكالوريوس
##درسه
حرفيا
الراوي
فنيه
الكونغولي
##YG
عاصفة
زكاة
فالف
هالب
وخلص
تقديمه
##سيسية
##عتني
السامي
##صائل
##يامي
##ريطه
والآخرة
الشارقه
براءة
برعايه
فاخر
رحيله
إبن
المواطنون
المقاطع
الرضع
المحمدية
بذكرى
##كش
##والت
السلفية
الانكليزي
للمواد
وجمهور
الاعجاز
##وول
اميل
تفوت
واللغات
##ank
قادما
الصالحه
صربيا
##زرار
وذوي
عطورات
دريك
يسته
##فاقات
انيقه
السرد
نضحك
جوالي
بصيغة
مليء
جيوش
وتيرة
##وديه
جاكسون
واحلام
الناجحة
المكاف
##رجمات
يسبح
أيديهم
تسهم
اصحي
وخمسين
تجن
الرمد
جذاب
ومعالم
الانكليزية
##اطرة
الطاقم
السيسى
##ظلات
فالإ
والالغ
هياط
والنور
ارجوك
لخلق
##لالك
لتمويل
بابك
مرم
المطاب
بشمال
بالدولة
ضمني
للانضمام
للجهاز
احدهما
إلها
النصيحه
ووحد
مقالة
لفائدة
حملها
المحليه
##بابه
متابعينكم
شتم
عاصي
المثقف
##روية
جدتي
تهب
اكذب
##رحى
بسحب
أمكن
##امجه
تكف
ونشرت
تعيينه
وروي
يفعلون
بلديه
يصاب
قووول
العقاريه
كلاسيك
Man
##ريكه
تريدون
تسرق
بالذهب
غزو
وتعيش
هيه
##ماة
يأتى
Fil
والسر
ملاحظه
غط
وزم
أظن
ريسيفرات
صباحات
بالأح
والمقترحات
بعثه
والشف
##زلنا
والعجز
للأنباء
كلماتي
الهلاليين
الكورى
والمشاعر
الغزالي
تكنوسات
وطنهم
المحافظين
الفراغات
##NF
الإناث
المظاهرات
ينوي
جيرمان
##رافكس
عمدا
والارشاد
فيد
##فجرات
الحاد
المنذر
الدومني
دخان
##ther
قائدا
ووعد
055603
كابتن
والاستغفار
تسجيلات
خامات
سابقه
تصغير
النصيب
##ثاره
للتغيير
هالة
وابنه
اشترى
##صاره
##سوبيشي
##ures
تهديدا
مشاركتها
واختلف
النواحي
والجميع
والصف
بالكلية
لأني
1975
والقواعد
الحنان
دينيه
الطبى
العنق
تتصل
الأعداء
والخط
التأهيل
الاعدادي
الصناديق
المتبقية
الزحام
الموجه
للنه
##وبكر
وبينهم
كسرت
شانه
##زوير
منسوب
يالي
بنغ
اربح
فنجان
كوري
يشتكي
اضعف
##nxx
اعتبره
المحسن
##oham
طرحها
والمحت
وصحيفة
الإمكان
وصارت
للصحافيين
للتصميم
##الرئيس
##خصاب
عبدالغني
فاعف
لحاله
لتست
للكيوماكس
وعقب
##سائر
مابعد
دجن
##GK
##خبة
Drivers
كوبر
بيتنا
المركبة
عزت
انجلترا
ترقيات
منحة
محاربه
تنمو
0556031932
يتصور
المكلفة
سلوفاكيا
##وائيه
عرفته
والمكياج
##زيمة
size
هوساوي
وتمر
##rim
تصمت
مريضه
للاطلاع
والقادم
فئه
ينتمون
التعاطي
exper
لانتخابات
الجنسين
المناظر
##عمير
غاف
الاباء
الواقعية
وضد
قضائي
سجله
مقدما
##form
اتفاقا
إياها
BHD
كالح
ابتكار
وهبي
جوله
وحرص
الطلق
التعيين
##ايكي
وإجراء
والأدبية
الاهمال
روو
##رفان
وأرد
طالبة
المرئي
اقترحني
زائدة
فقره
المستب
بلغه
الاقليم
الخاض
SAT
##نائيه
والتحديات
يضعف
جعلك
الافراد
برئيس
هويته
احط
اللقاح
الخيريه
ممتعه
حيوي
تفاقم
اجلك
برز
الفط
مرق
يااا
ينق
بزع
الثيمات
للجمهورية
الشهود
مابيستفيد
وحافظ
الزن
سنيني
##ياي
وتدريب
وفقني
##HS
ودنيا
##وسل
وينعم
عنصرا
##شارع
حكمت
بثمن
##ااه
مابيلتزم
##لبول
اوكي
اشع
لعمليات
مثالي
ذاكره
والجم
واليابان
والقرى
##بيعه
وبعده
توحي
##نافسة
وفهم
##بوهة
يسافر
الذهن
أقبل
ميونخ
مونتاري
المقترح
الغداء
##مدت
ماكينة
والإطلاع
ستره
باتخاذ
##52
لموقعك
السيولة
##سكين
OM
مبوبة
LK
وتهدف
الطار
لعالم
عرسال
المحترم
خليجيه
تمثال
توزع
منتخبات
احضان
خوان
فوق21
css
ابنك
درسا
تعليقا
##بيس
المدنى
ذب
##قاص
بلسان
مباحثات
نفرح
اشتهرت
بمقتل
يتوب
##oot
غفله
الإحصاء
المعتاد
تحريم
##ومال
الأسم
شارل
PEN
برنامجها
المخططات
وهج
والصمت
عالمنا
الجحيم
قفل
مشاعره
لتدريب
الخضار
##اوا
متمس
بكار
بوليفار
للصلع
تركته
مودي
وسحب
رايق
لتلبية
التمرد
طلبنا
##Berry
عروق
##روجين
مايب
No
ينفعك
106
Ag
والإت
السلطنة
ألك
سكين
فود
المنشطات
##راثيم
طريف
يضح
المعيش
مهنية
##عجل
فليت
عذابك
وجيزه
وسلاما
##نر
##كوت
##وفياء
فالش
رأسهم
مضاعفة
مكسيكي
للاشتراك
تتنا
##طلون
الفرسان
ونجاح
النسيم
ياحسين
الأفق
V2
قالب
يأمل
##وكاسل
الاقتصادى
اوجع
يؤخر
اضطراب
مواضع
جنبك
والشؤون
حقائب
راحتي
##رقل
اسير
##يناها
الأخر
الملتقيات
##السيوم
يؤدى
##داديه
فرجته
بلف
##plus
ولايته
مسلمون
بصدري
##الكم
لسوريا
latest
خلفيه
الأسير
108
لوقت
التاق
اندلعت
بقلبه
##eal
تخليك
وترب
والحسد
فرحة
وتميز
وتدخل
شغب
الحيات
لإظهار
##لتم
##جيتال
يقنع
مهلة
اخصائي
ويلعب
لخدمه
حايل
##هايمر
con
لحكم
الغالبية
المستعان
فام
تكثيف
##نعام
يستدعي
تفكيرك
العمرانية
الاعمار
وقائد
##JF
##والد
مكشوف
تقعد
يرتدي
##روحه
والجو
تبرير
العشره
موكب
##صورة
عفرين
سدا
غانمين
##يادتها
نخاف
ديلي
أهلية
##هاض
ينظرون
الاكشن
##سبها
ولدينا
المتعا
ناسي
##فيون
إسلاميات
يعا
وقاد
وينتهي
¤°
تؤذي
الخدج
نعتبر
نايل
السكون
خور
##تبة
بعلبك
تتجاهل
لهي
اححح
هرمون
حرمه
العطار
الرتب
والإح
بأننا
وطرائف
بخبر
2018م
مالطا
##na
data
غلام
##خائر
للقران
جوني
##ساندة
المدرجة
بمستشفى
شايب
علقت
الرفع
الاجابة
للصناعات
اضاء
where
مازدا
الحكاية
##تكاب
يشفع
##احبه
الوردي
الاطمئنان
لاط
##عهم
وازاله
##EB
وامي
##vol
تهديه
توليه
MDL
الدوار
وتحرير
للامام
الملتحمة
الطلبه
يستخدمون
تبعي
تلقاه
##صوت
vision
التشخيص
SLL
اتنين
خرجوا
تسويه
الجود
كتبي
اممي
ارباح
جواك
ارش
##ملي
واعظم
المستوطنين
والشخصيات
نفسنا
سارع
الشوف
##وطنة
CM
##وبلس
النشرة
ينتصر
شابه
##ونيك
فرانكفورت
GYD
خلقتني
##طبع
##غطيات
محطم
قواتنا
آلع
لمدينه
##فسد
HRK
فراش
##قيته
##تمان
##اكو
يتطلع
وللح
لمؤسسة
أصحابنا
مفاجئ
للبرنامج
الفرز
للزعيم
جهتها
بمجموعة
الاربعة
بالقي
guid
مكنت
المتبادل
نسعد
ومرضي
##طيها
عايشه
نفسهم
##مضي
أجنبي
وبرنامج
الوالي
احتواء
والدواء
html
##fo
وحا
لاتع
الطبري
ارحمنا
بالسلامه
بالدقة
اراه
سائلا
##وروغواي
##سلي
تعاقد
وثالث
والثانيه
الزبائن
##ورطين
واخره
سجين
Ak
حديثك
الحام
650
الثواب
##موذج
##ميشن
والرجال
مسائي
##itt
قائل
تنغ
##حتي
Ap
وجلس
واعتبرت
البقر
##راجه
تواجهها
##یر
اعتز
##بهان
اره
وعظيم
0547
سوار
##سابقين
جواتيم
ومختلف
##ated
##جيله
المنصرم
مشكل
اشهدك
يرتجف
امارات
قبح
نضال
إيصال
##يرمو
الفاخرة
صان
يشتغل
##مونا
ترافق
أهلي
الروائح
لقيادة
البسيطه
استجاب
الإجراء
وامام
مسبوقة
رشو
شبهات
مضمونه
وأنهم
ننصح
الغموض
##رددات
نفاق
ودراسات
خريجات
بنيت
ثورات
نسائيه
المرطبة
امواتنا
معلقا
المفكر
أفت
خشب
دعس
بأص
##شكلات
الشعراوي
يكلم
لحوم
##وكه
الراقية
##قاقير
الفاينال
عنب
##مول
مروح
الأخت
الكيلو
الأدوار
يتوافق
ادريس
موقعا
تافه
المسكين
والتسامح
متعة
المشاهده
المسرحي
الساحر
مذهل
والفرق
والعاملين
IC
ماليا
عاصمه
يابن
الغوطه
rtl
يحتاجها
عواقب
والقيم
##ندينا
واسكن
##شئ
فوضى
المرب
المخالفين
إسم
تشفي
واصبر
والتعبير
عرفتك
أعمارهم
حددت
##دواجية
بالقضاء
الغيث
الجيران
بالحي
للنفس
واصابه
مباركا
كنعان
للاعضاء
##vb
##اراته
صيدلية
تجهيزات
ناض
خفيفه
##con
يامحمد
أسهل
ورزق
تهوي
مصدرا
والأج
كالتالي
ناعم
لإيجاد
سكون
يخطر
##وحي
الاشهر
##110
المغردين
##جرا
والمشروبات
الميداني
##ركبات
ونتيجة
صيحات
##رايا
نصيبك
ونصره
##عادات
بدراسة
المنافسه
المساهمين
يرغبون
اعشاب
